{
  "version": "1.0",
  "truncation": null,
  "padding": null,
  "added_tokens": [
    {
      "id": 0,
      "content": "[PAD]",
      "single_word": false,
      "lstrip": false,
      "rstrip": false,
      "normalized": false,
      "special": true
    },
    {
      "id": 1,
      "content": "[BOS]",
      "single_word": false,
      "lstrip": false,
      "rstrip": false,
      "normalized": false,
      "special": true
    },
    {
      "id": 2,
      "content": "[EOS]",
      "single_word": false,
      "lstrip": false,
      "rstrip": false,
      "normalized": false,
      "special": true
    },
    {
      "id": 3,
      "content": "[UNK]",
      "single_word": false,
      "lstrip": false,
      "rstrip": false,
      "normalized": false,
      "special": true
    }
  ],
  "normalizer": null,
  "pre_tokenizer": {
    "type": "Whitespace"
  },
  "post_processor": null,
  "decoder": null,
  "model": {
    "type": "BPE",
    "dropout": null,
    "unk_token": "[UNK]",
    "continuing_subword_prefix": null,
    "end_of_word_suffix": null,
    "fuse_unk": false,
    "byte_fallback": false,
    "ignore_merges": false,
    "vocab": {
      "[PAD]": 0,
      "[BOS]": 1,
      "[EOS]": 2,
      "[UNK]": 3,
      "!": 4,
      "\"": 5,
      "#": 6,
      "$": 7,
      "%": 8,
      "&": 9,
      "'": 10,
      "(": 11,
      ")": 12,
      "*": 13,
      "+": 14,
      ",": 15,
      "-": 16,
      ".": 17,
      "/": 18,
      "0": 19,
      "1": 20,
      "2": 21,
      "3": 22,
      "4": 23,
      "5": 24,
      "6": 25,
      "7": 26,
      "8": 27,
      "9": 28,
      ":": 29,
      ";": 30,
      "<": 31,
      "=": 32,
      ">": 33,
      "?": 34,
      "@": 35,
      "A": 36,
      "B": 37,
      "C": 38,
      "D": 39,
      "E": 40,
      "F": 41,
      "G": 42,
      "H": 43,
      "I": 44,
      "J": 45,
      "K": 46,
      "L": 47,
      "M": 48,
      "N": 49,
      "O": 50,
      "P": 51,
      "Q": 52,
      "R": 53,
      "S": 54,
      "T": 55,
      "U": 56,
      "V": 57,
      "W": 58,
      "X": 59,
      "Y": 60,
      "Z": 61,
      "[": 62,
      "\\": 63,
      "]": 64,
      "^": 65,
      "_": 66,
      "`": 67,
      "a": 68,
      "b": 69,
      "c": 70,
      "d": 71,
      "e": 72,
      "f": 73,
      "g": 74,
      "h": 75,
      "i": 76,
      "j": 77,
      "k": 78,
      "l": 79,
      "m": 80,
      "n": 81,
      "o": 82,
      "p": 83,
      "q": 84,
      "r": 85,
      "s": 86,
      "t": 87,
      "u": 88,
      "v": 89,
      "w": 90,
      "x": 91,
      "y": 92,
      "z": 93,
      "{": 94,
      "|": 95,
      "~": 96,
      "¡": 97,
      "£": 98,
      "¯": 99,
      "°": 100,
      "´": 101,
      "·": 102,
      "º": 103,
      "½": 104,
      "É": 105,
      "Í": 106,
      "×": 107,
      "à": 108,
      "á": 109,
      "â": 110,
      "ã": 111,
      "ç": 112,
      "è": 113,
      "é": 114,
      "ì": 115,
      "í": 116,
      "î": 117,
      "ó": 118,
      "ö": 119,
      "ø": 120,
      "ü": 121,
      "ý": 122,
      "ă": 123,
      "ą": 124,
      "ć": 125,
      "č": 126,
      "Ę": 127,
      "ę": 128,
      "ķ": 129,
      "Ĺ": 130,
      "ł": 131,
      "ń": 132,
      "ō": 133,
      "ś": 134,
      "Ż": 135,
      "ż": 136,
      "ž": 137,
      "ș": 138,
      "ʖ": 139,
      "ʘ": 140,
      "̀": 141,
      "́": 142,
      "̯": 143,
      "̿": 144,
      "͜": 145,
      "͟": 146,
      "͠": 147,
      "͡": 148,
      "Θ": 149,
      "Σ": 150,
      "ε": 151,
      "θ": 152,
      "σ": 153,
      "φ": 154,
      "ω": 155,
      "Д": 156,
      "д": 157,
      "щ": 158,
      "ل": 159,
      "٩": 160,
      "۶": 161,
      "ಠ": 162,
      "ಥ": 163,
      "ง": 164,
      "༼": 165,
      "༽": 166,
      "ლ": 167,
      "ᵔ": 168,
      "ọ": 169,
      "‍": 170,
      "‎": 171,
      "‐": 172,
      "‑": 173,
      "–": 174,
      "—": 175,
      "‘": 176,
      "’": 177,
      "“": 178,
      "”": 179,
      "„": 180,
      "•": 181,
      "…": 182,
      "′": 183,
      "‸": 184,
      "‼": 185,
      "‿": 186,
      "€": 187,
      "∀": 188,
      "∇": 189,
      "∩": 190,
      "≦": 191,
      "≧": 192,
      "⊂": 193,
      "⊃": 194,
      "⌒": 195,
      "⌣": 196,
      "⏱": 197,
      "⑩": 198,
      "─": 199,
      "━": 200,
      "┌": 201,
      "┏": 202,
      "┐": 203,
      "┓": 204,
      "┗": 205,
      "┛": 206,
      "┬": 207,
      "┻": 208,
      "╬": 209,
      "╯": 210,
      "▀": 211,
      "□": 212,
      "▽": 213,
      "◇": 214,
      "○": 215,
      "◎": 216,
      "●": 217,
      "◔": 218,
      "◕": 219,
      "◠": 220,
      "◡": 221,
      "☀": 222,
      "☂": 223,
      "☆": 224,
      "☔": 225,
      "☕": 226,
      "☘": 227,
      "☜": 228,
      "☝": 229,
      "☞": 230,
      "☠": 231,
      "☢": 232,
      "☹": 233,
      "☺": 234,
      "♀": 235,
      "♂": 236,
      "♥": 237,
      "♪": 238,
      "♻": 239,
      "⚪": 240,
      "⚫": 241,
      "⚰": 242,
      "⚽": 243,
      "⛄": 244,
      "✅": 245,
      "✊": 246,
      "✌": 247,
      "✨": 248,
      "✿": 249,
      "❄": 250,
      "❌": 251,
      "❓": 252,
      "❣": 253,
      "❤": 254,
      "➡": 255,
      "⬛": 256,
      "⭐": 257,
      "。": 258,
      "〆": 259,
      "つ": 260,
      "へ": 261,
      "゛": 262,
      "゜": 263,
      "ゝ": 264,
      "ゞ": 265,
      "ェ": 266,
      "エ": 267,
      "オ": 268,
      "キ": 269,
      "コ": 270,
      "タ": 271,
      "ッ": 272,
      "ツ": 273,
      "ノ": 274,
      "ヘ": 275,
      "ホ": 276,
      "ム": 277,
      "メ": 278,
      "ラ": 279,
      "レ": 280,
      "ロ": 281,
      "ヮ": 282,
      "・": 283,
      "ー": 284,
      "ヽ": 285,
      "ヾ": 286,
      "ㅂ": 287,
      "一": 288,
      "丶": 289,
      "丿": 290,
      "二": 291,
      "屮": 292,
      "彡": 293,
      "皿": 294,
      "益": 295,
      "自": 296,
      "쁜": 297,
      "예": 298,
      "척": 299,
      "": 300,
      "": 301,
      "": 302,
      "": 303,
      "️": 304,
      "︵": 305,
      "﹏": 306,
      "﻿": 307,
      "！": 308,
      "＃": 309,
      "（": 310,
      "）": 311,
      "＊": 312,
      "－": 313,
      "／": 314,
      "；": 315,
      "＠": 316,
      "Ａ": 317,
      "Ｔ": 318,
      "＼": 319,
      "＾": 320,
      "＿": 321,
      "｀": 322,
      "ｏ": 323,
      "ｕ": 324,
      "ｖ": 325,
      "～": 326,
      "｡": 327,
      "･": 328,
      "ﾉ": 329,
      "ﾐ": 330,
      "ﾟ": 331,
      "￣": 332,
      "￥": 333,
      "🇨": 334,
      "🇫": 335,
      "🇬": 336,
      "🇮": 337,
      "🇳": 338,
      "🇴": 339,
      "🇷": 340,
      "🇸": 341,
      "🌊": 342,
      "🌎": 343,
      "🌜": 344,
      "🌞": 345,
      "🌟": 346,
      "🌠": 347,
      "🌴": 348,
      "🌸": 349,
      "🌹": 350,
      "🌺": 351,
      "🌿": 352,
      "🍄": 353,
      "🍅": 354,
      "🍆": 355,
      "🍉": 356,
      "🍋": 357,
      "🍌": 358,
      "🍑": 359,
      "🍒": 360,
      "🍓": 361,
      "🍔": 362,
      "🍦": 363,
      "🍫": 364,
      "🍭": 365,
      "🍰": 366,
      "🍷": 367,
      "🍸": 368,
      "🍹": 369,
      "🍺": 370,
      "🍻": 371,
      "🍾": 372,
      "🎂": 373,
      "🎃": 374,
      "🎄": 375,
      "🎅": 376,
      "🎆": 377,
      "🎉": 378,
      "🎊": 379,
      "🎥": 380,
      "🎩": 381,
      "🎶": 382,
      "🎼": 383,
      "🏆": 384,
      "🏋": 385,
      "🏖": 386,
      "🏝": 387,
      "🏧": 388,
      "🏴": 389,
      "🏻": 390,
      "🏼": 391,
      "🏽": 392,
      "🏾": 393,
      "🏿": 394,
      "🐇": 395,
      "🐈": 396,
      "🐉": 397,
      "🐍": 398,
      "🐔": 399,
      "🐝": 400,
      "🐟": 401,
      "🐬": 402,
      "🐮": 403,
      "🐰": 404,
      "🐱": 405,
      "🐳": 406,
      "🐶": 407,
      "🐷": 408,
      "🐻": 409,
      "🐼": 410,
      "🐾": 411,
      "👀": 412,
      "👋": 413,
      "👌": 414,
      "👍": 415,
      "👏": 416,
      "👑": 417,
      "👧": 418,
      "👩": 419,
      "👮": 420,
      "👯": 421,
      "👱": 422,
      "👴": 423,
      "👶": 424,
      "👸": 425,
      "👹": 426,
      "👺": 427,
      "👻": 428,
      "👼": 429,
      "👽": 430,
      "💀": 431,
      "💁": 432,
      "💃": 433,
      "💄": 434,
      "💇": 435,
      "💊": 436,
      "💋": 437,
      "💑": 438,
      "💒": 439,
      "💓": 440,
      "💔": 441,
      "💕": 442,
      "💖": 443,
      "💗": 444,
      "💙": 445,
      "💚": 446,
      "💛": 447,
      "💜": 448,
      "💞": 449,
      "💣": 450,
      "💤": 451,
      "💥": 452,
      "💦": 453,
      "💩": 454,
      "💪": 455,
      "💯": 456,
      "💵": 457,
      "💶": 458,
      "💸": 459,
      "📜": 460,
      "📺": 461,
      "🔑": 462,
      "🔝": 463,
      "🔥": 464,
      "🔫": 465,
      "🔴": 466,
      "🕵": 467,
      "🕷": 468,
      "🖐": 469,
      "🖕": 470,
      "🖤": 471,
      "🗺": 472,
      "😀": 473,
      "😁": 474,
      "😂": 475,
      "😃": 476,
      "😄": 477,
      "😅": 478,
      "😆": 479,
      "😇": 480,
      "😈": 481,
      "😉": 482,
      "😊": 483,
      "😋": 484,
      "😌": 485,
      "😍": 486,
      "😎": 487,
      "😏": 488,
      "😐": 489,
      "😑": 490,
      "😒": 491,
      "😓": 492,
      "😔": 493,
      "😕": 494,
      "😖": 495,
      "😗": 496,
      "😘": 497,
      "😙": 498,
      "😚": 499,
      "😛": 500,
      "😜": 501,
      "😝": 502,
      "😞": 503,
      "😟": 504,
      "😠": 505,
      "😡": 506,
      "😢": 507,
      "😣": 508,
      "😤": 509,
      "😥": 510,
      "😧": 511,
      "😨": 512,
      "😩": 513,
      "😪": 514,
      "😫": 515,
      "😬": 516,
      "😭": 517,
      "😮": 518,
      "😯": 519,
      "😰": 520,
      "😱": 521,
      "😲": 522,
      "😳": 523,
      "😴": 524,
      "😵": 525,
      "😶": 526,
      "😷": 527,
      "😸": 528,
      "😹": 529,
      "😺": 530,
      "😻": 531,
      "😽": 532,
      "🙀": 533,
      "🙁": 534,
      "🙂": 535,
      "🙃": 536,
      "🙄": 537,
      "🙆": 538,
      "🙇": 539,
      "🙈": 540,
      "🙉": 541,
      "🙊": 542,
      "🙋": 543,
      "🙌": 544,
      "🙍": 545,
      "🙎": 546,
      "🙏": 547,
      "🚀": 548,
      "🚣": 549,
      "🚬": 550,
      "🚱": 551,
      "🛌": 552,
      "🤐": 553,
      "🤑": 554,
      "🤒": 555,
      "🤓": 556,
      "🤔": 557,
      "🤕": 558,
      "🤖": 559,
      "🤗": 560,
      "🤘": 561,
      "🤙": 562,
      "🤝": 563,
      "🤞": 564,
      "🤟": 565,
      "🤡": 566,
      "🤢": 567,
      "🤣": 568,
      "🤤": 569,
      "🤦": 570,
      "🤧": 571,
      "🤨": 572,
      "🤩": 573,
      "🤪": 574,
      "🤫": 575,
      "🤬": 576,
      "🤭": 577,
      "🤮": 578,
      "🤯": 579,
      "🤴": 580,
      "🤵": 581,
      "🤷": 582,
      "🤸": 583,
      "🤼": 584,
      "🥁": 585,
      "🥂": 586,
      "🥃": 587,
      "🥇": 588,
      "🥒": 589,
      "🥕": 590,
      "🥗": 591,
      "🥝": 592,
      "🥞": 593,
      "🥪": 594,
      "🥰": 595,
      "🥳": 596,
      "🥵": 597,
      "🥶": 598,
      "🦄": 599,
      "🦊": 600,
      "🦌": 601,
      "🦐": 602,
      "🧒": 603,
      "🧓": 604,
      "🧘": 605,
      "🧙": 606,
      "🧡": 607,
      "🧺": 608,
      "th": 609,
      "in": 610,
      "an": 611,
      "ou": 612,
      "re": 613,
      "on": 614,
      "er": 615,
      "at": 616,
      "to": 617,
      "the": 618,
      "ll": 619,
      "ing": 620,
      "me": 621,
      "is": 622,
      "or": 623,
      "ar": 624,
      "it": 625,
      "you": 626,
      "en": 627,
      "he": 628,
      "st": 629,
      "le": 630,
      "ha": 631,
      "and": 632,
      "ve": 633,
      "ay": 634,
      "no": 635,
      "be": 636,
      "as": 637,
      "ic": 638,
      "es": 639,
      "ed": 640,
      "wi": 641,
      "so": 642,
      "se": 643,
      "go": 644,
      "et": 645,
      "li": 646,
      "we": 647,
      "ho": 648,
      "for": 649,
      "ac": 650,
      "ro": 651,
      "ke": 652,
      "al": 653,
      "id": 654,
      "of": 655,
      "ut": 656,
      "..": 657,
      "all": 658,
      "ne": 659,
      "are": 660,
      "gh": 661,
      "ld": 662,
      "hat": 663,
      "ri": 664,
      "that": 665,
      "do": 666,
      "lo": 667,
      "co": 668,
      "am": 669,
      "ad": 670,
      "ly": 671,
      "will": 672,
      "ab": 673,
      "now": 674,
      "out": 675,
      "have": 676,
      "ok": 677,
      "nd": 678,
      "ch": 679,
      "ti": 680,
      "ght": 681,
      "ver": 682,
      "im": 683,
      "ie": 684,
      "ry": 685,
      "one": 686,
      "my": 687,
      "with": 688,
      "but": 689,
      "ould": 690,
      "can": 691,
      "su": 692,
      "day": 693,
      "te": 694,
      "ir": 695,
      "ust": 696,
      "od": 697,
      "not": 698,
      "some": 699,
      "el": 700,
      "know": 701,
      "Mar": 702,
      "ah": 703,
      "ant": 704,
      "la": 705,
      "was": 706,
      "ter": 707,
      "us": 708,
      "thing": 709,
      "her": 710,
      "if": 711,
      "ill": 712,
      "end": 713,
      "mo": 714,
      "ink": 715,
      "ally": 716,
      "au": 717,
      "ther": 718,
      "about": 719,
      "what": 720,
      "ia": 721,
      "wor": 722,
      "Jo": 723,
      "don": 724,
      "fe": 725,
      "sh": 726,
      "na": 727,
      "ate": 728,
      "wh": 729,
      "ra": 730,
      "pp": 731,
      "this": 732,
      "ion": 733,
      "ank": 734,
      "any": 735,
      "ge": 736,
      "pe": 737,
      "ma": 738,
      "up": 739,
      "ick": 740,
      "The": 741,
      "just": 742,
      "...": 743,
      "get": 744,
      "ack": 745,
      "like": 746,
      "om": 747,
      "un": 748,
      "she": 749,
      "An": 750,
      "ye": 751,
      "ine": 752,
      "ile": 753,
      "pl": 754,
      "there": 755,
      "your": 756,
      "want": 757,
      "think": 758,
      "ce": 759,
      "ent": 760,
      "!!": 761,
      "time": 762,
      "nt": 763,
      "our": 764,
      "sa": 765,
      "ind": 766,
      "ice": 767,
      "He": 768,
      "No": 769,
      "ta": 770,
      "de": 771,
      "ol": 772,
      "see": 773,
      "art": 774,
      "they": 775,
      "ur": 776,
      "ob": 777,
      "ck": 778,
      "Ch": 779,
      "pro": 780,
      "going": 781,
      "way": 782,
      "il": 783,
      "It": 784,
      "did": 785,
      "ight": 786,
      "very": 787,
      "here": 788,
      "work": 789,
      "bo": 790,
      ":)": 791,
      "ex": 792,
      "ag": 793,
      "ss": 794,
      "com": 795,
      "You": 796,
      "need": 797,
      "rom": 798,
      "ow": 799,
      "ris": 800,
      "has": 801,
      "file": 802,
      "And": 803,
      "his": 804,
      "how": 805,
      "op": 806,
      "from": 807,
      "good": 808,
      "We": 809,
      "too": 810,
      "gu": 811,
      "ard": 812,
      "come": 813,
      "mor": 814,
      "ess": 815,
      "row": 816,
      "file_": 817,
      "got": 818,
      "him": 819,
      "What": 820,
      "ound": 821,
      "con": 822,
      "ven": 823,
      "ek": 824,
      "really": 825,
      "would": 826,
      "ide": 827,
      "per": 828,
      "week": 829,
      "new": 830,
      "Th": 831,
      "meet": 832,
      "mu": 833,
      "pre": 834,
      "ct": 835,
      "ue": 836,
      "af": 837,
      "anks": 838,
      "ace": 839,
      "them": 840,
      "po": 841,
      "ber": 842,
      "Tom": 843,
      "haha": 844,
      "red": 845,
      "ation": 846,
      "other": 847,
      "che": 848,
      "Ye": 849,
      "sure": 850,
      "read": 851,
      "ite": 852,
      "ina": 853,
      "look": 854,
      "reat": 855,
      "right": 856,
      "ble": 857,
      "then": 858,
      "by": 859,
      "bu": 860,
      "fo": 861,
      "when": 862,
      "av": 863,
      "ive": 864,
      "ure": 865,
      "alk": 866,
      "should": 867,
      "Al": 868,
      "Lu": 869,
      "let": 870,
      "ave": 871,
      "morrow": 872,
      "tomorrow": 873,
      "ame": 874,
      "Joh": 875,
      "back": 876,
      "hel": 877,
      "ny": 878,
      "Car": 879,
      "lie": 880,
      "She": 881,
      "ig": 882,
      "ong": 883,
      "Ju": 884,
      "act": 885,
      "xt": 886,
      "ty": 887,
      "So": 888,
      "John": 889,
      "home": 890,
      "um": 891,
      "Fr": 892,
      "more": 893,
      "part": 894,
      "pho": 895,
      "Chris": 896,
      "ast": 897,
      "photo": 898,
      "had": 899,
      "much": 900,
      "ask": 901,
      "aybe": 902,
      "But": 903,
      "take": 904,
      "sc": 905,
      "ass": 906,
      "well": 907,
      "does": 908,
      "ous": 909,
      "off": 910,
      "cau": 911,
      "wa": 912,
      "Pet": 913,
      "Ok": 914,
      "been": 915,
      "ple": 916,
      "after": 917,
      "Yeah": 918,
      "could": 919,
      "Yes": 920,
      "ian": 921,
      "love": 922,
      "cause": 923,
      "today": 924,
      "ul": 925,
      "talk": 926,
      "ee": 927,
      "something": 928,
      "ike": 929,
      "ph": 930,
      "ment": 931,
      "happ": 932,
      "every": 933,
      "ain": 934,
      "ough": 935,
      "How": 936,
      "Dan": 937,
      "br": 938,
      "sp": 939,
      "ily": 940,
      "Em": 941,
      "ep": 942,
      "say": 943,
      "Pau": 944,
      "ton": 945,
      "lly": 946,
      "Jan": 947,
      "That": 948,
      "Sam": 949,
      "Wh": 950,
      "tr": 951,
      "They": 952,
      "yeah": 953,
      "yes": 954,
      "orry": 955,
      "wait": 956,
      "ff": 957,
      "??": 958,
      "won": 959,
      "than": 960,
      "Oh": 961,
      "last": 962,
      "great": 963,
      "qu": 964,
      "call": 965,
      "ers": 966,
      "Kate": 967,
      "ica": 968,
      "ish": 969,
      "ara": 970,
      "even": 971,
      "ys": 972,
      "ready": 973,
      "next": 974,
      "bet": 975,
      "ning": 976,
      "who": 977,
      "oo": 978,
      "still": 979,
      "man": 980,
      "ase": 981,
      "ought": 982,
      "fri": 983,
      "Hi": 984,
      "make": 985,
      "where": 986,
      "buy": 987,
      "why": 988,
      "wat": 989,
      "didn": 990,
      "friend": 991,
      "tell": 992,
      "ort": 993,
      "lot": 994,
      "cy": 995,
      "gr": 996,
      "Ale": 997,
      "Be": 998,
      "help": 999,
      "Jack": 1000,
      "min": 1001,
      "because": 1002,
      "place": 1003,
      ";)": 1004,
      "Peter": 1005,
      "Mary": 1006,
      "uck": 1007,
      "Jen": 1008,
      "file_photo": 1009,
      "ich": 1010,
      "year": 1011,
      "able": 1012,
      "Rob": 1013,
      "Ro": 1014,
      "ak": 1015,
      "ree": 1016,
      "Pat": 1017,
      "try": 1018,
      "lia": 1019,
      "jo": 1020,
      "Mike": 1021,
      "Alex": 1022,
      "thanks": 1023,
      "Don": 1024,
      "Ad": 1025,
      "Do": 1026,
      "rest": 1027,
      "ist": 1028,
      "over": 1029,
      "tion": 1030,
      "iz": 1031,
      "ving": 1032,
      "Ke": 1033,
      "cl": 1034,
      "Anna": 1035,
      "ud": 1036,
      "wn": 1037,
      "ople": 1038,
      "ting": 1039,
      "ies": 1040,
      "mber": 1041,
      "mon": 1042,
      "feel": 1043,
      "Mon": 1044,
      "ake": 1045,
      "ren": 1046,
      "ans": 1047,
      "Paul": 1048,
      "wants": 1049,
      "Le": 1050,
      "fin": 1051,
      "lat": 1052,
      "app": 1053,
      "coming": 1054,
      "were": 1055,
      "book": 1056,
      "doesn": 1057,
      "ary": 1058,
      "nice": 1059,
      "Mat": 1060,
      "ways": 1061,
      "people": 1062,
      "lf": 1063,
      "Hey": 1064,
      "bit": 1065,
      "maybe": 1066,
      "anna": 1067,
      "son": 1068,
      "only": 1069,
      "car": 1070,
      "sorry": 1071,
      "Go": 1072,
      "Well": 1073,
      "tha": 1074,
      "blem": 1075,
      "De": 1076,
      "Me": 1077,
      "better": 1078,
      "Thanks": 1079,
      "find": 1080,
      "problem": 1081,
      "Will": 1082,
      "sho": 1083,
      "ity": 1084,
      "ach": 1085,
      "Mark": 1086,
      "Br": 1087,
      "und": 1088,
      "night": 1089,
      "gan": 1090,
      "Ste": 1091,
      "mis": 1092,
      "arry": 1093,
      "sto": 1094,
      "cou": 1095,
      "Lo": 1096,
      "fore": 1097,
      "send": 1098,
      "give": 1099,
      "already": 1100,
      "mas": 1101,
      "tw": 1102,
      "start": 1103,
      "again": 1104,
      "Je": 1105,
      "ser": 1106,
      "tonight": 1107,
      "mm": 1108,
      "party": 1109,
      "late": 1110,
      "Ann": 1111,
      "Ben": 1112,
      "ric": 1113,
      "tra": 1114,
      "fir": 1115,
      "lle": 1116,
      "vis": 1117,
      "ason": 1118,
      "ner": 1119,
      "ci": 1120,
      "hi": 1121,
      "play": 1122,
      "Mic": 1123,
      "irl": 1124,
      "bab": 1125,
      "anything": 1126,
      "bus": 1127,
      "ster": 1128,
      "watch": 1129,
      "10": 1130,
      "mean": 1131,
      "long": 1132,
      "Just": 1133,
      "tle": 1134,
      "always": 1135,
      "check": 1136,
      "Jane": 1137,
      "dis": 1138,
      "Oli": 1139,
      "Tim": 1140,
      "idea": 1141,
      "oh": 1142,
      "gif": 1143,
      "Can": 1144,
      "Sure": 1145,
      "chan": 1146,
      "Char": 1147,
      "dr": 1148,
      "Ma": 1149,
      "ames": 1150,
      "their": 1151,
      "also": 1152,
      "happen": 1153,
      "Re": 1154,
      "int": 1155,
      "Ge": 1156,
      "guys": 1157,
      "ann": 1158,
      "Is": 1159,
      "io": 1160,
      "fun": 1161,
      "stay": 1162,
      "hour": 1163,
      "reg": 1164,
      "ious": 1165,
      "before": 1166,
      "fine": 1167,
      "ley": 1168,
      "!!!": 1169,
      "Ha": 1170,
      "cour": 1171,
      "ub": 1172,
      "girl": 1173,
      "ress": 1174,
      "around": 1175,
      "bring": 1176,
      "Jim": 1177,
      "pm": 1178,
      "tor": 1179,
      "days": 1180,
      "soon": 1181,
      "via": 1182,
      "ert": 1183,
      "thought": 1184,
      "Lau": 1185,
      "first": 1186,
      "St": 1187,
      "Are": 1188,
      ":(": 1189,
      "lla": 1190,
      "oney": 1191,
      "yet": 1192,
      "ounds": 1193,
      "course": 1194,
      "30": 1195,
      "bro": 1196,
      "ord": 1197,
      "isa": 1198,
      "wr": 1199,
      "sent": 1200,
      "spe": 1201,
      "bad": 1202,
      "guess": 1203,
      "big": 1204,
      "pa": 1205,
      "Sh": 1206,
      "pick": 1207,
      "ail": 1208,
      "meeting": 1209,
      "member": 1210,
      "Adam": 1211,
      "pare": 1212,
      "weekend": 1213,
      "doing": 1214,
      "self": 1215,
      "There": 1216,
      "later": 1217,
      "Co": 1218,
      "lol": 1219,
      "Jess": 1220,
      "its": 1221,
      "Not": 1222,
      "lit": 1223,
      "inda": 1224,
      "vin": 1225,
      "ise": 1226,
      "job": 1227,
      "Sar": 1228,
      "hope": 1229,
      "old": 1230,
      "most": 1231,
      "tri": 1232,
      "vie": 1233,
      "erry": 1234,
      "ather": 1235,
      "minut": 1236,
      "ose": 1237,
      "yl": 1238,
      "Geor": 1239,
      "Have": 1240,
      "Sarah": 1241,
      "va": 1242,
      "Se": 1243,
      "di": 1244,
      "ually": 1245,
      "Danie": 1246,
      "ark": 1247,
      "pic": 1248,
      "ody": 1249,
      "down": 1250,
      "ear": 1251,
      "kes": 1252,
      "James": 1253,
      "Why": 1254,
      "Good": 1255,
      "Frank": 1256,
      "please": 1257,
      "Josh": 1258,
      "rent": 1259,
      "best": 1260,
      "les": 1261,
      "plan": 1262,
      "month": 1263,
      "Dav": 1264,
      "Ne": 1265,
      "Andre": 1266,
      "never": 1267,
      "ade": 1268,
      "Vic": 1269,
      "two": 1270,
      "age": 1271,
      "Jake": 1272,
      "comp": 1273,
      "though": 1274,
      "anda": 1275,
      "Matt": 1276,
      "care": 1277,
      "ft": 1278,
      "que": 1279,
      "gon": 1280,
      "Emma": 1281,
      "OK": 1282,
      "seen": 1283,
      "scho": 1284,
      "told": 1285,
      "cool": 1286,
      "remember": 1287,
      "aw": 1288,
      "sed": 1289,
      "Greg": 1290,
      "Am": 1291,
      "dec": 1292,
      "David": 1293,
      "In": 1294,
      "cho": 1295,
      "might": 1296,
      "kid": 1297,
      "Christ": 1298,
      "pr": 1299,
      "school": 1300,
      "gonna": 1301,
      "Maybe": 1302,
      "iam": 1303,
      "class": 1304,
      "Kim": 1305,
      "ps": 1306,
      "ca": 1307,
      "Mel": 1308,
      "happy": 1309,
      "everything": 1310,
      "king": 1311,
      "iday": 1312,
      "ms": 1313,
      "Thank": 1314,
      "looking": 1315,
      "Ar": 1316,
      "din": 1317,
      "show": 1318,
      "inv": 1319,
      "room": 1320,
      "join": 1321,
      "which": 1322,
      "same": 1323,
      "visit": 1324,
      "went": 1325,
      "atur": 1326,
      "ts": 1327,
      "gl": 1328,
      "dif": 1329,
      "file_gif": 1330,
      ":-": 1331,
      "gether": 1332,
      "ang": 1333,
      "bir": 1334,
      "Did": 1335,
      "du": 1336,
      "hael": 1337,
      "sterday": 1338,
      "mind": 1339,
      "hey": 1340,
      "Harry": 1341,
      "together": 1342,
      "Gr": 1343,
      "little": 1344,
      "dy": 1345,
      "Joe": 1346,
      "said": 1347,
      "bably": 1348,
      "minutes": 1349,
      "Bar": 1350,
      "Monica": 1351,
      "Hel": 1352,
      "ouse": 1353,
      "ever": 1354,
      "je": 1355,
      "Daniel": 1356,
      "sha": 1357,
      "Sus": 1358,
      "George": 1359,
      "Tr": 1360,
      "terest": 1361,
      "za": 1362,
      "Laura": 1363,
      "clo": 1364,
      "fect": 1365,
      "morning": 1366,
      "file_other": 1367,
      "Alice": 1368,
      "20": 1369,
      "Andy": 1370,
      "aren": 1371,
      "Jac": 1372,
      "use": 1373,
      "few": 1374,
      "Nick": 1375,
      "Any": 1376,
      "Ho": 1377,
      "arri": 1378,
      "Emily": 1379,
      "Martha": 1380,
      "free": 1381,
      "If": 1382,
      "Carol": 1383,
      "Max": 1384,
      "eat": 1385,
      "things": 1386,
      "Jenny": 1387,
      "xx": 1388,
      "Linda": 1389,
      "yesterday": 1390,
      "oph": 1391,
      "port": 1392,
      "interest": 1393,
      "uff": 1394,
      "thy": 1395,
      "stand": 1396,
      "count": 1397,
      "needs": 1398,
      "money": 1399,
      "Friday": 1400,
      "air": 1401,
      "az": 1402,
      "supp": 1403,
      "getting": 1404,
      "wanted": 1405,
      "Fred": 1406,
      "ets": 1407,
      "birth": 1408,
      "under": 1409,
      "Soph": 1410,
      "....": 1411,
      "drink": 1412,
      "Hen": 1413,
      "ony": 1414,
      "tur": 1415,
      "ild": 1416,
      "rian": 1417,
      "My": 1418,
      "bl": 1419,
      "mat": 1420,
      "many": 1421,
      "keep": 1422,
      "ten": 1423,
      "aturday": 1424,
      "left": 1425,
      "Lucy": 1426,
      "waiting": 1427,
      "ire": 1428,
      "med": 1429,
      "?!": 1430,
      "ap": 1431,
      "Bob": 1432,
      "Mo": 1433,
      "thinking": 1434,
      "llo": 1435,
      "bor": 1436,
      "ful": 1437,
      "tty": 1438,
      "See": 1439,
      "heard": 1440,
      "done": 1441,
      "Mia": 1442,
      "dress": 1443,
      "less": 1444,
      "working": 1445,
      "Julia": 1446,
      "ance": 1447,
      "sur": 1448,
      "Lisa": 1449,
      "fr": 1450,
      "Nat": 1451,
      "men": 1452,
      "sit": 1453,
      "Maria": 1454,
      "dinner": 1455,
      "house": 1456,
      "birthday": 1457,
      "May": 1458,
      "ward": 1459,
      "cas": 1460,
      "cat": 1461,
      "inter": 1462,
      "actually": 1463,
      "stuff": 1464,
      "quite": 1465,
      "Jeff": 1466,
      "happened": 1467,
      "Michael": 1468,
      "Helen": 1469,
      "Luke": 1470,
      "leave": 1471,
      "Olivia": 1472,
      "pay": 1473,
      "gg": 1474,
      "tin": 1475,
      "Bill": 1476,
      "actly": 1477,
      "saw": 1478,
      "sounds": 1479,
      "tick": 1480,
      "side": 1481,
      "When": 1482,
      "dri": 1483,
      "haven": 1484,
      "hear": 1485,
      "probably": 1486,
      "nes": 1487,
      "else": 1488,
      "zy": 1489,
      "ancy": 1490,
      "cle": 1491,
      "exp": 1492,
      "line": 1493,
      "nothing": 1494,
      "stud": 1495,
      "leep": 1496,
      "Sand": 1497,
      "ora": 1498,
      "Saturday": 1499,
      "light": 1500,
      "friends": 1501,
      "Where": 1502,
      "Let": 1503,
      "Steve": 1504,
      "ger": 1505,
      "Henry": 1506,
      "Kelly": 1507,
      "Jacob": 1508,
      "body": 1509,
      "Dian": 1510,
      "Ell": 1511,
      "cent": 1512,
      "ier": 1513,
      "phone": 1514,
      "belie": 1515,
      "found": 1516,
      "acy": 1517,
      "ved": 1518,
      "bre": 1519,
      "cus": 1520,
      "fam": 1521,
      "Cl": 1522,
      "food": 1523,
      "Ag": 1524,
      "ens": 1525,
      "annah": 1526,
      "quest": 1527,
      "miss": 1528,
      "ste": 1529,
      "Susan": 1530,
      "fuck": 1531,
      "ip": 1532,
      "busy": 1533,
      "Robert": 1534,
      "Rac": 1535,
      "Sue": 1536,
      "nie": 1537,
      "may": 1538,
      "ria": 1539,
      "Ru": 1540,
      "Andrew": 1541,
      "having": 1542,
      "kind": 1543,
      "ya": 1544,
      "office": 1545,
      "unch": 1546,
      "Amy": 1547,
      "worry": 1548,
      "Christmas": 1549,
      ":/": 1550,
      "pretty": 1551,
      "ding": 1552,
      "someone": 1553,
      "parent": 1554,
      "sm": 1555,
      "rick": 1556,
      "into": 1557,
      "such": 1558,
      "evening": 1559,
      "hahaha": 1560,
      "Hannah": 1561,
      "ith": 1562,
      "umber": 1563,
      "believe": 1564,
      "Cla": 1565,
      "thank": 1566,
      "Karen": 1567,
      "LO": 1568,
      "forgot": 1569,
      "live": 1570,
      "made": 1571,
      "vide": 1572,
      "ince": 1573,
      "anc": 1574,
      "Ang": 1575,
      "times": 1576,
      "wanna": 1577,
      "parents": 1578,
      "Po": 1579,
      "another": 1580,
      "looks": 1581,
      "Eve": 1582,
      "bought": 1583,
      "15": 1584,
      "set": 1585,
      "list": 1586,
      "aa": 1587,
      "str": 1588,
      "Tina": 1589,
      "away": 1590,
      "ign": 1591,
      "okay": 1592,
      "diffe": 1593,
      "years": 1594,
      "fi": 1595,
      "00": 1596,
      "Great": 1597,
      "Ron": 1598,
      "life": 1599,
      "El": 1600,
      "put": 1601,
      "pping": 1602,
      "Sim": 1603,
      "swe": 1604,
      "ible": 1605,
      "ture": 1606,
      "Ed": 1607,
      "Na": 1608,
      "ago": 1609,
      "hard": 1610,
      "offe": 1611,
      "dont": 1612,
      "ject": 1613,
      "Rachel": 1614,
      "Barb": 1615,
      "Martin": 1616,
      "Kevin": 1617,
      "Bet": 1618,
      "lor": 1619,
      "mend": 1620,
      "!!!!": 1621,
      "Jessica": 1622,
      "Isa": 1623,
      "Jason": 1624,
      "ute": 1625,
      "joy": 1626,
      "recom": 1627,
      "Sara": 1628,
      "used": 1629,
      "luck": 1630,
      "recommend": 1631,
      "turn": 1632,
      "sis": 1633,
      "sleep": 1634,
      "This": 1635,
      "Amanda": 1636,
      "fu": 1637,
      "Mom": 1638,
      "cook": 1639,
      "Ash": 1640,
      "Anne": 1641,
      "guy": 1642,
      "Jose": 1643,
      "game": 1644,
      "number": 1645,
      "gest": 1646,
      "All": 1647,
      "Dave": 1648,
      "both": 1649,
      "text": 1650,
      "Tho": 1651,
      "shit": 1652,
      "name": 1653,
      "video": 1654,
      "der": 1655,
      "ations": 1656,
      "rie": 1657,
      "while": 1658,
      "rence": 1659,
      "pt": 1660,
      "head": 1661,
      "change": 1662,
      "Bre": 1663,
      "ated": 1664,
      "vers": 1665,
      "perfect": 1666,
      "sk": 1667,
      "ited": 1668,
      "ik": 1669,
      "date": 1670,
      "Ian": 1671,
      "eas": 1672,
      "those": 1673,
      "tt": 1674,
      "enough": 1675,
      "Hello": 1676,
      "train": 1677,
      "hours": 1678,
      "LOL": 1679,
      "pass": 1680,
      "ney": 1681,
      "Sorry": 1682,
      "ating": 1683,
      "least": 1684,
      "serious": 1685,
      "Sophie": 1686,
      "Gab": 1687,
      "Jay": 1688,
      "Ph": 1689,
      "ence": 1690,
      "post": 1691,
      "must": 1692,
      "worri": 1693,
      "kids": 1694,
      "Nancy": 1695,
      "Rick": 1696,
      "family": 1697,
      "ither": 1698,
      ":*": 1699,
      "XD": 1700,
      "rey": 1701,
      "Rose": 1702,
      "break": 1703,
      "ot": 1704,
      "sug": 1705,
      "movie": 1706,
      "mail": 1707,
      "Okay": 1708,
      "trip": 1709,
      "Eli": 1710,
      "these": 1711,
      "illy": 1712,
      "scar": 1713,
      "des": 1714,
      "die": 1715,
      "Ver": 1716,
      "each": 1717,
      "fer": 1718,
      "present": 1719,
      "key": 1720,
      "Kat": 1721,
      "picture": 1722,
      "Patrick": 1723,
      "Liz": 1724,
      "ena": 1725,
      "exam": 1726,
      "Eva": 1727,
      "understand": 1728,
      "tickets": 1729,
      "Tony": 1730,
      "xD": 1731,
      "mum": 1732,
      "far": 1733,
      "ila": 1734,
      "ction": 1735,
      "organ": 1736,
      "Da": 1737,
      "ions": 1738,
      "Mr": 1739,
      "dad": 1740,
      "Mag": 1741,
      "ome": 1742,
      "sick": 1743,
      "order": 1744,
      "different": 1745,
      "Con": 1746,
      "gy": 1747,
      "aron": 1748,
      "low": 1749,
      "everyone": 1750,
      "Lou": 1751,
      "doc": 1752,
      "amaz": 1753,
      "Mad": 1754,
      "Ka": 1755,
      "coffe": 1756,
      "toria": 1757,
      "hed": 1758,
      "Paula": 1759,
      "Gina": 1760,
      "cra": 1761,
      "land": 1762,
      "true": 1763,
      "sing": 1764,
      "ba": 1765,
      "ricia": 1766,
      "exactly": 1767,
      "Thomas": 1768,
      "anyway": 1769,
      "ins": 1770,
      "top": 1771,
      "watching": 1772,
      "Charlie": 1773,
      "lunch": 1774,
      "oup": 1775,
      "cont": 1776,
      "Zo": 1777,
      "til": 1778,
      "ory": 1779,
      "Sally": 1780,
      "met": 1781,
      "person": 1782,
      "cre": 1783,
      "ones": 1784,
      "till": 1785,
      "weeks": 1786,
      "Brian": 1787,
      "Cam": 1788,
      "Te": 1789,
      "res": 1790,
      "ona": 1791,
      "being": 1792,
      "Nata": 1793,
      "Sandra": 1794,
      "mine": 1795,
      "Su": 1796,
      "stop": 1797,
      "Diana": 1798,
      "Eric": 1799,
      "Haha": 1800,
      "Joan": 1801,
      "Har": 1802,
      "mom": 1803,
      "cer": 1804,
      "coffee": 1805,
      "iona": 1806,
      "Victoria": 1807,
      "bed": 1808,
      "Zoe": 1809,
      "ug": 1810,
      "pris": 1811,
      "Betty": 1812,
      "poss": 1813,
      "whole": 1814,
      "ald": 1815,
      "Lucas": 1816,
      "amazing": 1817,
      "talking": 1818,
      ":-)": 1819,
      "suggest": 1820,
      "Dar": 1821,
      "Rich": 1822,
      "enjoy": 1823,
      "test": 1824,
      "Patricia": 1825,
      "Dor": 1826,
      "plans": 1827,
      "cial": 1828,
      "run": 1829,
      "rough": 1830,
      "nor": 1831,
      "mes": 1832,
      "Ab": 1833,
      "Ky": 1834,
      "hair": 1835,
      "Noah": 1836,
      "Leo": 1837,
      "Fiona": 1838,
      "shopping": 1839,
      "Ca": 1840,
      "hand": 1841,
      "Oscar": 1842,
      "usu": 1843,
      "once": 1844,
      "Ken": 1845,
      "form": 1846,
      "agree": 1847,
      "called": 1848,
      "walk": 1849,
      "esome": 1850,
      "loe": 1851,
      "aut": 1852,
      "wed": 1853,
      "isn": 1854,
      "ela": 1855,
      "town": 1856,
      "itch": 1857,
      "seems": 1858,
      "own": 1859,
      "vent": 1860,
      "took": 1861,
      "since": 1862,
      "wear": 1863,
      "En": 1864,
      "Terry": 1865,
      "izza": 1866,
      "Er": 1867,
      "Liam": 1868,
      "sth": 1869,
      "ita": 1870,
      "ana": 1871,
      "Bo": 1872,
      "ene": 1873,
      "ison": 1874,
      "project": 1875,
      "icul": 1876,
      "Chloe": 1877,
      "open": 1878,
      "spend": 1879,
      "Nic": 1880,
      "andy": 1881,
      "asked": 1882,
      "pain": 1883,
      "cond": 1884,
      "Simon": 1885,
      "Isabe": 1886,
      "acc": 1887,
      "Ly": 1888,
      "par": 1889,
      "mp": 1890,
      "aving": 1891,
      "ensive": 1892,
      "Ethan": 1893,
      "surpris": 1894,
      "point": 1895,
      "William": 1896,
      "couple": 1897,
      "iting": 1898,
      "ette": 1899,
      "dog": 1900,
      "likes": 1901,
      "pect": 1902,
      "boy": 1903,
      "wonder": 1904,
      "through": 1905,
      "until": 1906,
      "Brad": 1907,
      "real": 1908,
      "???": 1909,
      "Of": 1910,
      "hh": 1911,
      "prepare": 1912,
      "almost": 1913,
      "without": 1914,
      "months": 1915,
      "othy": 1916,
      "att": 1917,
      "Grace": 1918,
      "wish": 1919,
      "Ashley": 1920,
      "hate": 1921,
      "taking": 1922,
      "trying": 1923,
      "holi": 1924,
      "Pete": 1925,
      "feeling": 1926,
      "finite": 1927,
      "Lily": 1928,
      "flight": 1929,
      "fav": 1930,
      "aur": 1931,
      "news": 1932,
      "On": 1933,
      "sy": 1934,
      "Beth": 1935,
      "Claire": 1936,
      "osed": 1937,
      "wasn": 1938,
      "finitely": 1939,
      "12": 1940,
      "bar": 1941,
      "den": 1942,
      "Joseph": 1943,
      "exc": 1944,
      "Charles": 1945,
      "girls": 1946,
      "Kar": 1947,
      "pri": 1948,
      "ash": 1949,
      "fort": 1950,
      "Bro": 1951,
      "noon": 1952,
      "Jenn": 1953,
      "came": 1954,
      "Megan": 1955,
      "ugh": 1956,
      "helle": 1957,
      "pol": 1958,
      "Sund": 1959,
      "lyn": 1960,
      "anyone": 1961,
      "supposed": 1962,
      "Phil": 1963,
      "wrong": 1964,
      "Dam": 1965,
      "Dad": 1966,
      "Wend": 1967,
      "pizza": 1968,
      "Sean": 1969,
      "Ame": 1970,
      "Nina": 1971,
      "expensive": 1972,
      "sister": 1973,
      "win": 1974,
      "Some": 1975,
      "shop": 1976,
      "Ted": 1977,
      "fast": 1978,
      "mus": 1979,
      "sid": 1980,
      "wo": 1981,
      "Sunday": 1982,
      "iv": 1983,
      "beaut": 1984,
      "ird": 1985,
      "Alan": 1986,
      "HA": 1987,
      "Ry": 1988,
      "thinks": 1989,
      "Cool": 1990,
      "case": 1991,
      "als": 1992,
      "group": 1993,
      "funny": 1994,
      "write": 1995,
      "Barbara": 1996,
      "iley": 1997,
      "started": 1998,
      "reen": 1999,
      "Julie": 2000,
      "finish": 2001,
      "cr": 2002,
      "ling": 2003,
      "mate": 2004,
      "mer": 2005,
      "Stan": 2006,
      "city": 2007,
      "ga": 2008,
      "Juli": 2009,
      "leaving": 2010,
      "sol": 2011,
      "Agnes": 2012,
      "wine": 2013,
      "view": 2014,
      "half": 2015,
      "rible": 2016,
      "van": 2017,
      "ical": 2018,
      "Wendy": 2019,
      "tired": 2020,
      "Caroline": 2021,
      "interesting": 2022,
      "igh": 2023,
      "Michelle": 2024,
      "chang": 2025,
      "ues": 2026,
      "wen": 2027,
      "super": 2028,
      "says": 2029,
      "Ger": 2030,
      "war": 2031,
      "antha": 2032,
      "mother": 2033,
      "blo": 2034,
      "colle": 2035,
      "indy": 2036,
      "child": 2037,
      "raid": 2038,
      "uring": 2039,
      "Samantha": 2040,
      "As": 2041,
      "ons": 2042,
      "Maya": 2043,
      "ken": 2044,
      "ifer": 2045,
      "expect": 2046,
      "hes": 2047,
      "Jill": 2048,
      "lin": 2049,
      "Jam": 2050,
      "OM": 2051,
      "isy": 2052,
      "myself": 2053,
      "Ryan": 2054,
      "urs": 2055,
      "Ex": 2056,
      "anie": 2057,
      "lost": 2058,
      "Victor": 2059,
      "Jerry": 2060,
      "company": 2061,
      "possible": 2062,
      "beer": 2063,
      "char": 2064,
      "New": 2065,
      "ange": 2066,
      "reci": 2067,
      "partment": 2068,
      "planning": 2069,
      "Oliver": 2070,
      "ane": 2071,
      "move": 2072,
      "wouldn": 2073,
      "Monday": 2074,
      "Who": 2075,
      "gie": 2076,
      "pack": 2077,
      "To": 2078,
      "ked": 2079,
      "Natalie": 2080,
      "For": 2081,
      "Franc": 2082,
      "study": 2083,
      "hor": 2084,
      "Donna": 2085,
      "anymore": 2086,
      "Molly": 2087,
      "wedding": 2088,
      "Jennifer": 2089,
      "Like": 2090,
      "afraid": 2091,
      "early": 2092,
      "cost": 2093,
      "cannot": 2094,
      "playing": 2095,
      "Nathan": 2096,
      "vel": 2097,
      "vice": 2098,
      "during": 2099,
      "Sounds": 2100,
      "lease": 2101,
      "lix": 2102,
      "cold": 2103,
      "Ava": 2104,
      "inn": 2105,
      "Lilly": 2106,
      "net": 2107,
      "ched": 2108,
      "high": 2109,
      "Amelia": 2110,
      "beth": 2111,
      "lain": 2112,
      "baby": 2113,
      "interested": 2114,
      "drive": 2115,
      "Ella": 2116,
      "Gu": 2117,
      "issa": 2118,
      "clean": 2119,
      "Richard": 2120,
      "Or": 2121,
      "online": 2122,
      "decid": 2123,
      "Ruth": 2124,
      "doctor": 2125,
      "bs": 2126,
      "gen": 2127,
      "iful": 2128,
      "works": 2129,
      "Tracy": 2130,
      "cal": 2131,
      "uel": 2132,
      "awesome": 2133,
      "Vick": 2134,
      "near": 2135,
      "tel": 2136,
      "couldn": 2137,
      "aurant": 2138,
      "Kris": 2139,
      "Abig": 2140,
      "thew": 2141,
      "tried": 2142,
      "easy": 2143,
      "Daisy": 2144,
      "ib": 2145,
      "aret": 2146,
      "ese": 2147,
      "lip": 2148,
      "asking": 2149,
      "Maggie": 2150,
      "pub": 2151,
      "tot": 2152,
      "Marg": 2153,
      "Abigail": 2154,
      "ball": 2155,
      "cky": 2156,
      "afternoon": 2157,
      "Pe": 2158,
      "cha": 2159,
      "cert": 2160,
      "det": 2161,
      "email": 2162,
      "sweet": 2163,
      "Mum": 2164,
      "ics": 2165,
      "vo": 2166,
      "rain": 2167,
      "cks": 2168,
      "press": 2169,
      "enny": 2170,
      "restaurant": 2171,
      "appo": 2172,
      "Kyle": 2173,
      "deal": 2174,
      "broke": 2175,
      "Hope": 2176,
      "small": 2177,
      "11": 2178,
      "lad": 2179,
      "lear": 2180,
      "definitely": 2181,
      "oooo": 2182,
      "Look": 2183,
      "Really": 2184,
      "da": 2185,
      "wow": 2186,
      "ital": 2187,
      "sub": 2188,
      "Marie": 2189,
      "uro": 2190,
      "liked": 2191,
      "concert": 2192,
      "listen": 2193,
      "messa": 2194,
      "card": 2195,
      "ves": 2196,
      "making": 2197,
      "yourself": 2198,
      "gi": 2199,
      "second": 2200,
      "song": 2201,
      "ments": 2202,
      "brother": 2203,
      "beautiful": 2204,
      "cor": 2205,
      "lu": 2206,
      "contact": 2207,
      "Please": 2208,
      "Wow": 2209,
      "uri": 2210,
      "vor": 2211,
      "Logan": 2212,
      "ished": 2213,
      "Margaret": 2214,
      "ident": 2215,
      "import": 2216,
      "Jackie": 2217,
      "OMG": 2218,
      "At": 2219,
      "dro": 2220,
      "-)": 2221,
      "ump": 2222,
      "Meg": 2223,
      "Ber": 2224,
      "mar": 2225,
      "ont": 2226,
      "classes": 2227,
      "Dorothy": 2228,
      "Ellie": 2229,
      "crazy": 2230,
      "ursday": 2231,
      "Un": 2232,
      "Now": 2233,
      "boss": 2234,
      "avail": 2235,
      "Could": 2236,
      "Den": 2237,
      "forget": 2238,
      "promis": 2239,
      "ages": 2240,
      "Mir": 2241,
      "ole": 2242,
      "team": 2243,
      "speak": 2244,
      "question": 2245,
      "Sha": 2246,
      "Steph": 2247,
      "important": 2248,
      "sen": 2249,
      "wel": 2250,
      "alone": 2251,
      "uni": 2252,
      "ize": 2253,
      "sal": 2254,
      "stead": 2255,
      "appoint": 2256,
      "Larry": 2257,
      "lling": 2258,
      "Tob": 2259,
      "Wed": 2260,
      "Fe": 2261,
      "ings": 2262,
      "ween": 2263,
      "Yep": 2264,
      "lotte": 2265,
      "outside": 2266,
      "Charlotte": 2267,
      "add": 2268,
      "Angela": 2269,
      "flat": 2270,
      "ition": 2271,
      "ared": 2272,
      "upid": 2273,
      "inema": 2274,
      "either": 2275,
      "iness": 2276,
      "rece": 2277,
      "lect": 2278,
      "weather": 2279,
      "special": 2280,
      "Suz": 2281,
      "bur": 2282,
      "jam": 2283,
      "finally": 2284,
      "Jamie": 2285,
      "June": 2286,
      "Annie": 2287,
      "Jimmy": 2288,
      "ering": 2289,
      "somewhere": 2290,
      "hasn": 2291,
      "discus": 2292,
      "Dom": 2293,
      "ately": 2294,
      "park": 2295,
      "sim": 2296,
      "recent": 2297,
      "sty": 2298,
      "Joanna": 2299,
      "Caron": 2300,
      "glad": 2301,
      "mark": 2302,
      "pped": 2303,
      "Jere": 2304,
      "worries": 2305,
      "available": 2306,
      "Gary": 2307,
      "dear": 2308,
      "cel": 2309,
      "lic": 2310,
      "Aaron": 2311,
      "Per": 2312,
      "borrow": 2313,
      "decided": 2314,
      "cute": 2315,
      "ze": 2316,
      "season": 2317,
      "thats": 2318,
      "onest": 2319,
      "peri": 2320,
      "Brend": 2321,
      "close": 2322,
      "Jon": 2323,
      "problems": 2324,
      "nesday": 2325,
      "music": 2326,
      "link": 2327,
      "stupid": 2328,
      "summ": 2329,
      "moment": 2330,
      "world": 2331,
      "talked": 2332,
      "hur": 2333,
      "ates": 2334,
      "unk": 2335,
      "cinema": 2336,
      "gave": 2337,
      "hu": 2338,
      "log": 2339,
      "gets": 2340,
      "Val": 2341,
      "bast": 2342,
      "ced": 2343,
      "spo": 2344,
      "wis": 2345,
      "front": 2346,
      "Bla": 2347,
      "Im": 2348,
      "ouch": 2349,
      "tie": 2350,
      "word": 2351,
      "band": 2352,
      "Ana": 2353,
      "cur": 2354,
      "mid": 2355,
      "asha": 2356,
      "hotel": 2357,
      "lovely": 2358,
      "Bye": 2359,
      "station": 2360,
      "acher": 2361,
      "ends": 2362,
      "Mor": 2363,
      "dam": 2364,
      "reet": 2365,
      "vious": 2366,
      "account": 2367,
      "sie": 2368,
      "ats": 2369,
      "ars": 2370,
      "knows": 2371,
      "books": 2372,
      "Lee": 2373,
      "event": 2374,
      "instead": 2375,
      "Thursday": 2376,
      "trans": 2377,
      "atherine": 2378,
      "Melissa": 2379,
      "Hmm": 2380,
      "Nor": 2381,
      "makes": 2382,
      "Tommy": 2383,
      "grand": 2384,
      "answ": 2385,
      "choose": 2386,
      "Cindy": 2387,
      "fre": 2388,
      "consid": 2389,
      "prefer": 2390,
      "Patty": 2391,
      "Every": 2392,
      "Pro": 2393,
      "kill": 2394,
      "rid": 2395,
      "reason": 2396,
      "ayla": 2397,
      "Then": 2398,
      "dude": 2399,
      "Wednesday": 2400,
      "Tues": 2401,
      "mit": 2402,
      "Jean": 2403,
      "Jas": 2404,
      "Sp": 2405,
      "rek": 2406,
      "cept": 2407,
      "Bru": 2408,
      "Engl": 2409,
      "Would": 2410,
      "ww": 2411,
      "Which": 2412,
      "50": 2413,
      "lier": 2414,
      "bert": 2415,
      "Vicky": 2416,
      "Pol": 2417,
      "door": 2418,
      "photos": 2419,
      "buying": 2420,
      "gift": 2421,
      "Should": 2422,
      "Lon": 2423,
      "games": 2424,
      "tain": 2425,
      "store": 2426,
      "recently": 2427,
      "Tre": 2428,
      "apartment": 2429,
      "del": 2430,
      "ross": 2431,
      "load": 2432,
      "rather": 2433,
      "Matthew": 2434,
      "black": 2435,
      "Ruby": 2436,
      "pop": 2437,
      "seeing": 2438,
      "Carl": 2439,
      "detail": 2440,
      "Aud": 2441,
      "fan": 2442,
      "ka": 2443,
      "hell": 2444,
      "Nicole": 2445,
      "ru": 2446,
      "Eliza": 2447,
      "PM": 2448,
      "ficul": 2449,
      "comes": 2450,
      "worried": 2451,
      "usual": 2452,
      "totally": 2453,
      "Jeremy": 2454,
      "Tay": 2455,
      "main": 2456,
      "offer": 2457,
      "finished": 2458,
      "summer": 2459,
      "table": 2460,
      "dead": 2461,
      "Becky": 2462,
      "club": 2463,
      "Amber": 2464,
      "bas": 2465,
      "ically": 2466,
      "water": 2467,
      "fil": 2468,
      "asks": 2469,
      "paper": 2470,
      "Her": 2471,
      "past": 2472,
      "lying": 2473,
      "imag": 2474,
      "oman": 2475,
      "ext": 2476,
      "Bella": 2477,
      "xd": 2478,
      "llow": 2479,
      "bec": 2480,
      "teacher": 2481,
      "ylan": 2482,
      "yler": 2483,
      "Taylor": 2484,
      "Owen": 2485,
      "Sco": 2486,
      "cam": 2487,
      "sort": 2488,
      "alright": 2489,
      "Holly": 2490,
      "Brenda": 2491,
      "Syl": 2492,
      "War": 2493,
      "lt": 2494,
      "weird": 2495,
      "gotta": 2496,
      "earlier": 2497,
      "difficul": 2498,
      "short": 2499,
      "safe": 2500,
      "saying": 2501,
      "Ce": 2502,
      "DD": 2503,
      "hun": 2504,
      "mod": 2505,
      "vi": 2506,
      "llie": 2507,
      "hosp": 2508,
      "board": 2509,
      "Derek": 2510,
      "invited": 2511,
      "catch": 2512,
      "fix": 2513,
      "details": 2514,
      "leg": 2515,
      "comple": 2516,
      "longer": 2517,
      "Veron": 2518,
      "Lind": 2519,
      "Man": 2520,
      "ces": 2521,
      "ream": 2522,
      "gym": 2523,
      "ideas": 2524,
      "Ray": 2525,
      "Right": 2526,
      "honest": 2527,
      "bot": 2528,
      "pictures": 2529,
      "Tuesday": 2530,
      "bye": 2531,
      "gn": 2532,
      "uu": 2533,
      "ents": 2534,
      "option": 2535,
      "business": 2536,
      "angry": 2537,
      "Af": 2538,
      "marri": 2539,
      "neigh": 2540,
      "watched": 2541,
      "Trevor": 2542,
      "cut": 2543,
      "agre": 2544,
      "favour": 2545,
      ";-)": 2546,
      "Dylan": 2547,
      "cli": 2548,
      "led": 2549,
      "manag": 2550,
      "cess": 2551,
      "Danny": 2552,
      "Brit": 2553,
      "rad": 2554,
      "stress": 2555,
      "cheap": 2556,
      "pleas": 2557,
      "cially": 2558,
      "suggests": 2559,
      "box": 2560,
      "God": 2561,
      "Wal": 2562,
      "thes": 2563,
      "arch": 2564,
      "Hahaha": 2565,
      "Exactly": 2566,
      "19": 2567,
      "ham": 2568,
      "Ross": 2569,
      "Katie": 2570,
      "boyfriend": 2571,
      "English": 2572,
      "difficult": 2573,
      "Ser": 2574,
      "cake": 2575,
      "Alexand": 2576,
      "drunk": 2577,
      "Clara": 2578,
      "learn": 2579,
      "London": 2580,
      "Veronica": 2581,
      "Ral": 2582,
      "Steven": 2583,
      "Sophia": 2584,
      "ika": 2585,
      "Nice": 2586,
      "sad": 2587,
      "goes": 2588,
      "excited": 2589,
      "lian": 2590,
      "col": 2591,
      "chedu": 2592,
      "discuss": 2593,
      "Ire": 2594,
      "honey": 2595,
      "ien": 2596,
      "ship": 2597,
      "cele": 2598,
      "holiday": 2599,
      "Pam": 2600,
      "knew": 2601,
      "remind": 2602,
      "lled": 2603,
      "essa": 2604,
      "Leah": 2605,
      "Che": 2606,
      "Lena": 2607,
      "fit": 2608,
      "hmm": 2609,
      "three": 2610,
      "cant": 2611,
      "sometimes": 2612,
      "between": 2613,
      "matter": 2614,
      "fully": 2615,
      "children": 2616,
      "welcome": 2617,
      "Mandy": 2618,
      "gin": 2619,
      "etc": 2620,
      "sun": 2621,
      "Fran": 2622,
      "decide": 2623,
      "invit": 2624,
      "Audrey": 2625,
      "Ralph": 2626,
      "Bart": 2627,
      "est": 2628,
      "face": 2629,
      "missed": 2630,
      "Love": 2631,
      "paid": 2632,
      "price": 2633,
      "Ola": 2634,
      "sign": 2635,
      "ori": 2636,
      "forward": 2637,
      "manage": 2638,
      "series": 2639,
      "complete": 2640,
      "heal": 2641,
      "Andrea": 2642,
      "solute": 2643,
      "Toby": 2644,
      "hospital": 2645,
      "Aust": 2646,
      "Wanna": 2647,
      "ring": 2648,
      "thx": 2649,
      "onia": 2650,
      "roy": 2651,
      "Got": 2652,
      "celebr": 2653,
      "riel": 2654,
      "ush": 2655,
      "feels": 2656,
      "staying": 2657,
      "Anyway": 2658,
      "yo": 2659,
      "Come": 2660,
      "tive": 2661,
      "lap": 2662,
      "Nope": 2663,
      "file_video": 2664,
      "chance": 2665,
      "girlfriend": 2666,
      "share": 2667,
      "clothes": 2668,
      "accident": 2669,
      "Hugh": 2670,
      "bag": 2671,
      "aces": 2672,
      "reading": 2673,
      "loves": 2674,
      "quick": 2675,
      "boring": 2676,
      "seriously": 2677,
      "eed": 2678,
      "sound": 2679,
      "oud": 2680,
      "Adrian": 2681,
      "arrive": 2682,
      "Louise": 2683,
      "imagine": 2684,
      "Pa": 2685,
      "Your": 2686,
      "fess": 2687,
      "father": 2688,
      "yy": 2689,
      "ount": 2690,
      "ffic": 2691,
      "dia": 2692,
      "ted": 2693,
      "yn": 2694,
      "aris": 2695,
      "road": 2696,
      "whatever": 2697,
      "drinks": 2698,
      "message": 2699,
      "Miranda": 2700,
      "mad": 2701,
      "uation": 2702,
      "Ali": 2703,
      "Rory": 2704,
      "ii": 2705,
      "ix": 2706,
      "Sebast": 2707,
      "dou": 2708,
      "touch": 2709,
      "ual": 2710,
      "cop": 2711,
      "experi": 2712,
      "Justin": 2713,
      "invite": 2714,
      "Bobby": 2715,
      "babe": 2716,
      "running": 2717,
      "Blake": 2718,
      "fact": 2719,
      "inform": 2720,
      "chick": 2721,
      "hahah": 2722,
      "Kimber": 2723,
      "full": 2724,
      "Lol": 2725,
      "len": 2726,
      "😂😂": 2727,
      "hot": 2728,
      "worse": 2729,
      "rist": 2730,
      "Samuel": 2731,
      "Stanley": 2732,
      "Ah": 2733,
      "inst": 2734,
      "lan": 2735,
      "tory": 2736,
      "mess": 2737,
      "issu": 2738,
      "wife": 2739,
      "hop": 2740,
      "advice": 2741,
      "worth": 2742,
      "Nothing": 2743,
      "blue": 2744,
      "mention": 2745,
      "Sm": 2746,
      "em": 2747,
      "flix": 2748,
      "illa": 2749,
      "ppy": 2750,
      "Janet": 2751,
      "Louis": 2752,
      "Domin": 2753,
      "Glor": 2754,
      "ork": 2755,
      "ford": 2756,
      "notes": 2757,
      "Sharon": 2758,
      "Ellen": 2759,
      "Finn": 2760,
      "Lia": 2761,
      "Mason": 2762,
      "Wa": 2763,
      "pie": 2764,
      "rew": 2765,
      "ference": 2766,
      "produ": 2767,
      "married": 2768,
      "Evan": 2769,
      "Jord": 2770,
      "Rita": 2771,
      "os": 2772,
      "wall": 2773,
      "ira": 2774,
      "others": 2775,
      "Scott": 2776,
      "Sebastian": 2777,
      "40": 2778,
      "Sk": 2779,
      "TV": 2780,
      "fish": 2781,
      "kidding": 2782,
      "True": 2783,
      "driving": 2784,
      "fucking": 2785,
      "changed": 2786,
      "Sylvia": 2787,
      "Bry": 2788,
      "US": 2789,
      "arr": 2790,
      "arent": 2791,
      "takes": 2792,
      "bored": 2793,
      "Gloria": 2794,
      "gra": 2795,
      "iet": 2796,
      "ness": 2797,
      "youn": 2798,
      "law": 2799,
      "ille": 2800,
      "Joy": 2801,
      "Lola": 2802,
      "Rebec": 2803,
      "wards": 2804,
      "appointment": 2805,
      "Rebecca": 2806,
      "Ra": 2807,
      "ja": 2808,
      "vies": 2809,
      "Theo": 2810,
      "writing": 2811,
      "surprise": 2812,
      "solutely": 2813,
      "bie": 2814,
      "ming": 2815,
      "ities": 2816,
      "confir": 2817,
      "posit": 2818,
      "grab": 2819,
      "country": 2820,
      "Freddie": 2821,
      "bour": 2822,
      "ial": 2823,
      "sex": 2824,
      "100": 2825,
      "usually": 2826,
      "Sid": 2827,
      "due": 2828,
      "mal": 2829,
      "wise": 2830,
      "resu": 2831,
      "stair": 2832,
      "poor": 2833,
      "Dean": 2834,
      "Cor": 2835,
      "Flo": 2836,
      "dra": 2837,
      "idge": 2838,
      "moved": 2839,
      "iles": 2840,
      "booked": 2841,
      "ES": 2842,
      "Qu": 2843,
      "rown": 2844,
      "lots": 2845,
      "airport": 2846,
      "recommends": 2847,
      "Erin": 2848,
      "gone": 2849,
      "rect": 2850,
      "yep": 2851,
      "taken": 2852,
      "oper": 2853,
      "Elisa": 2854,
      "Phi": 2855,
      "Vio": 2856,
      "ler": 2857,
      "oke": 2858,
      "white": 2859,
      "looked": 2860,
      "Lauren": 2861,
      "Jessie": 2862,
      "choice": 2863,
      "xxx": 2864,
      "Sandy": 2865,
      "Tell": 2866,
      "Isabella": 2867,
      "drop": 2868,
      "Perfect": 2869,
      "Act": 2870,
      "flo": 2871,
      "thony": 2872,
      "iss": 2873,
      "movies": 2874,
      "omg": 2875,
      "ooo": 2876,
      "Robin": 2877,
      "Pauline": 2878,
      "Very": 2879,
      "attend": 2880,
      "receive": 2881,
      "fair": 2882,
      "hang": 2883,
      "request": 2884,
      "stuck": 2885,
      "using": 2886,
      "Carrie": 2887,
      "appreci": 2888,
      "jamin": 2889,
      "One": 2890,
      "kinda": 2891,
      "Anthony": 2892,
      "aking": 2893,
      "Does": 2894,
      "shoes": 2895,
      "Benjamin": 2896,
      "uba": 2897,
      "itchen": 2898,
      "Kimberly": 2899,
      "Mi": 2900,
      "Ur": 2901,
      "vy": 2902,
      "Donald": 2903,
      "sends": 2904,
      "Edward": 2905,
      "holidays": 2906,
      "dar": 2907,
      "enter": 2908,
      "god": 2909,
      "........": 2910,
      "Bl": 2911,
      "Euro": 2912,
      "Jes": 2913,
      "Take": 2914,
      "Tyler": 2915,
      "winter": 2916,
      "After": 2917,
      "stairs": 2918,
      "45": 2919,
      "Net": 2920,
      "chat": 2921,
      "unately": 2922,
      "cked": 2923,
      "Deb": 2924,
      "traffic": 2925,
      "pics": 2926,
      "match": 2927,
      "presentation": 2928,
      "answer": 2929,
      "Tam": 2930,
      "hol": 2931,
      "irt": 2932,
      "Judy": 2933,
      "epis": 2934,
      "Diane": 2935,
      "Elizabeth": 2936,
      "Irene": 2937,
      "IN": 2938,
      "OO": 2939,
      "gar": 2940,
      "ude": 2941,
      "keys": 2942,
      "Georg": 2943,
      "stru": 2944,
      "Francis": 2945,
      "bottle": 2946,
      "episod": 2947,
      "cri": 2948,
      "cord": 2949,
      "kitchen": 2950,
      "resp": 2951,
      "yours": 2952,
      "extra": 2953,
      "checked": 2954,
      "minute": 2955,
      "laptop": 2956,
      "Nate": 2957,
      "return": 2958,
      "terrible": 2959,
      "ticket": 2960,
      "Lydia": 2961,
      "Hu": 2962,
      "Mer": 2963,
      "Rus": 2964,
      "ata": 2965,
      "sel": 2966,
      "cover": 2967,
      "entr": 2968,
      "seem": 2969,
      "ilk": 2970,
      "conference": 2971,
      "udia": 2972,
      "horrible": 2973,
      "Actually": 2974,
      "ption": 2975,
      "search": 2976,
      "huge": 2977,
      "favourite": 2978,
      "Nora": 2979,
      "teach": 2980,
      "Isla": 2981,
      "Fine": 2982,
      "Rod": 2983,
      "gent": 2984,
      "report": 2985,
      "icia": 2986,
      "wondering": 2987,
      "snow": 2988,
      "uary": 2989,
      "moving": 2990,
      "story": 2991,
      "questions": 2992,
      "arently": 2993,
      "Barry": 2994,
      "OU": 2995,
      "Zack": 2996,
      "cu": 2997,
      "dream": 2998,
      "aly": 2999,
      "along": 3000,
      "los": 3001,
      "address": 3002,
      "eline": 3003,
      "Melanie": 3004,
      "Aid": 3005,
      "Pho": 3006,
      "lar": 3007,
      "mma": 3008,
      "anne": 3009,
      "Heather": 3010,
      "profess": 3011,
      "astic": 3012,
      "Roger": 3013,
      "His": 3014,
      "Still": 3015,
      "flow": 3016,
      "ju": 3017,
      "schedu": 3018,
      "orge": 3019,
      "ills": 3020,
      "conf": 3021,
      "Mona": 3022,
      "NO": 3023,
      "bank": 3024,
      "fa": 3025,
      "gle": 3026,
      "rela": 3027,
      "action": 3028,
      "places": 3029,
      "opin": 3030,
      "avier": 3031,
      "mins": 3032,
      "situation": 3033,
      "interview": 3034,
      "Polly": 3035,
      "Gabriel": 3036,
      "25": 3037,
      "Les": 3038,
      "acey": 3039,
      "pair": 3040,
      "film": 3041,
      "suit": 3042,
      "Marc": 3043,
      "Leon": 3044,
      "comput": 3045,
      "market": 3046,
      "Poland": 3047,
      "Jordan": 3048,
      "**": 3049,
      "fight": 3050,
      "hit": 3051,
      "sell": 3052,
      "proper": 3053,
      "trave": 3054,
      "Theresa": 3055,
      "versity": 3056,
      "Catherine": 3057,
      "means": 3058,
      "shouldn": 3059,
      "eeee": 3060,
      "lecture": 3061,
      "Ol": 3062,
      "cross": 3063,
      "swi": 3064,
      "lucky": 3065,
      "bath": 3066,
      "sense": 3067,
      "Kit": 3068,
      "ges": 3069,
      "tu": 3070,
      "val": 3071,
      "ery": 3072,
      "stra": 3073,
      "ries": 3074,
      "build": 3075,
      "Brand": 3076,
      "sending": 3077,
      "lately": 3078,
      "Smith": 3079,
      "fant": 3080,
      "treat": 3081,
      "rel": 3082,
      "accept": 3083,
      "dow": 3084,
      "aught": 3085,
      "unno": 3086,
      "homework": 3087,
      "iot": 3088,
      "spect": 3089,
      "fortunately": 3090,
      "darling": 3091,
      "rill": 3092,
      "advis": 3093,
      "Year": 3094,
      "foot": 3095,
      "spent": 3096,
      "giving": 3097,
      "promise": 3098,
      "Es": 3099,
      "Pl": 3100,
      "With": 3101,
      "pat": 3102,
      "thur": 3103,
      "webs": 3104,
      "Here": 3105,
      "convin": 3106,
      "brary": 3107,
      "pract": 3108,
      "gener": 3109,
      "computer": 3110,
      "Face": 3111,
      "ror": 3112,
      "ret": 3113,
      "hello": 3114,
      "sec": 3115,
      "ters": 3116,
      "follow": 3117,
      "damn": 3118,
      "Walter": 3119,
      "Hun": 3120,
      "Pame": 3121,
      "Was": 3122,
      "milk": 3123,
      "ua": 3124,
      "sport": 3125,
      "Arthur": 3126,
      "cooking": 3127,
      "surprised": 3128,
      "Pamela": 3129,
      "Ind": 3130,
      "pu": 3131,
      "ern": 3132,
      "needed": 3133,
      "rench": 3134,
      "Madison": 3135,
      "Mick": 3136,
      "Paris": 3137,
      "Sonia": 3138,
      "woman": 3139,
      "ref": 3140,
      "sea": 3141,
      "tian": 3142,
      "trust": 3143,
      "explain": 3144,
      "breakfast": 3145,
      "Netflix": 3146,
      "website": 3147,
      "La": 3148,
      "Lenny": 3149,
      "asia": 3150,
      "irst": 3151,
      "bud": 3152,
      "happens": 3153,
      "Philip": 3154,
      "Europe": 3155,
      "Jona": 3156,
      "ying": 3157,
      "tho": 3158,
      "throw": 3159,
      "enti": 3160,
      "neither": 3161,
      "Kai": 3162,
      "Suzie": 3163,
      "Jonathan": 3164,
      "Stell": 3165,
      "emp": 3166,
      "ater": 3167,
      "atul": 3168,
      "argu": 3169,
      "Carmen": 3170,
      "loved": 3171,
      "starts": 3172,
      "ilda": 3173,
      "relax": 3174,
      "Stella": 3175,
      "Ba": 3176,
      "Dora": 3177,
      "ER": 3178,
      "rice": 3179,
      "vac": 3180,
      "reser": 3181,
      "ised": 3182,
      "library": 3183,
      "finds": 3184,
      "studying": 3185,
      "neighbour": 3186,
      "Hank": 3187,
      "Li": 3188,
      "odd": 3189,
      "dep": 3190,
      "Alison": 3191,
      "Albert": 3192,
      "travel": 3193,
      "Brooke": 3194,
      "completely": 3195,
      "\".": 3196,
      "Aw": 3197,
      "App": 3198,
      "Cher": 3199,
      "Ollie": 3200,
      "ants": 3201,
      "deli": 3202,
      "Gemma": 3203,
      "normal": 3204,
      "Jasmine": 3205,
      "Lindsay": 3206,
      "Viv": 3207,
      "Zach": 3208,
      "aper": 3209,
      "fall": 3210,
      "pecially": 3211,
      "ilar": 3212,
      "Because": 3213,
      "dith": 3214,
      "shall": 3215,
      "Cale": 3216,
      "bt": 3217,
      "ebe": 3218,
      "anno": 3219,
      "especially": 3220,
      "often": 3221,
      "wash": 3222,
      "iled": 3223,
      "gram": 3224,
      "Stacy": 3225,
      "arrived": 3226,
      "support": 3227,
      "Gabrie": 3228,
      "Bruce": 3229,
      "TH": 3230,
      "Wil": 3231,
      "rs": 3232,
      "ices": 3233,
      "tea": 3234,
      "dered": 3235,
      "arden": 3236,
      "ists": 3237,
      "cream": 3238,
      "Phoebe": 3239,
      "Olga": 3240,
      "Facebook": 3241,
      "flu": 3242,
      "green": 3243,
      "nn": 3244,
      "round": 3245,
      "sw": 3246,
      "iff": 3247,
      "Yea": 3248,
      "appro": 3249,
      "Poppy": 3250,
      "polit": 3251,
      "Warsaw": 3252,
      "EA": 3253,
      "Lara": 3254,
      "ond": 3255,
      "nold": 3256,
      "oking": 3257,
      "Alf": 3258,
      "favor": 3259,
      "appreciate": 3260,
      "Col": 3261,
      "Hay": 3262,
      "ali": 3263,
      "star": 3264,
      "Marta": 3265,
      "omi": 3266,
      "drinking": 3267,
      "internet": 3268,
      "Damian": 3269,
      "Ita": 3270,
      "cast": 3271,
      "lend": 3272,
      "inside": 3273,
      "heart": 3274,
      "telling": 3275,
      "Lewis": 3276,
      "starting": 3277,
      "Christine": 3278,
      "Evelyn": 3279,
      "chicken": 3280,
      "street": 3281,
      "impress": 3282,
      "indeed": 3283,
      "afford": 3284,
      "iana": 3285,
      "Beat": 3286,
      "broken": 3287,
      "died": 3288,
      "Joshua": 3289,
      "Stephanie": 3290,
      "Alexander": 3291,
      "Penny": 3292,
      "fing": 3293,
      "pur": 3294,
      "ouble": 3295,
      "Apri": 3296,
      "Cle": 3297,
      "Cong": 3298,
      "arm": 3299,
      "save": 3300,
      ":))": 3301,
      "pot": 3302,
      "Carlos": 3303,
      "offers": 3304,
      "complain": 3305,
      "warm": 3306,
      "April": 3307,
      "Get": 3308,
      "ban": 3309,
      "nis": 3310,
      "zz": 3311,
      "vey": 3312,
      "shi": 3313,
      "Italy": 3314,
      "ower": 3315,
      "ches": 3316,
      "decis": 3317,
      "Connor": 3318,
      "colour": 3319,
      "entrance": 3320,
      "18": 3321,
      "lts": 3322,
      "rep": 3323,
      "strange": 3324,
      "Scar": 3325,
      "jack": 3326,
      "Lea": 3327,
      "visiting": 3328,
      "eating": 3329,
      "Angie": 3330,
      "Gre": 3331,
      "hus": 3332,
      "mall": 3333,
      "mach": 3334,
      "hehe": 3335,
      "idi": 3336,
      "convers": 3337,
      "pregn": 3338,
      ":-(": 3339,
      "opinion": 3340,
      "Caleb": 3341,
      "Congr": 3342,
      "Bor": 3343,
      "Fa": 3344,
      "Hm": 3345,
      "Happ": 3346,
      "King": 3347,
      "Pr": 3348,
      "Vin": 3349,
      "ative": 3350,
      "sucks": 3351,
      "congr": 3352,
      "avin": 3353,
      "plane": 3354,
      "Angel": 3355,
      "university": 3356,
      "Wait": 3357,
      "floor": 3358,
      "Bon": 3359,
      "Yup": 3360,
      "cred": 3361,
      "begin": 3362,
      "living": 3363,
      "host": 3364,
      "Mario": 3365,
      "upset": 3366,
      "Anton": 3367,
      "himself": 3368,
      "calling": 3369,
      "Nicky": 3370,
      "Scarlet": 3371,
      "Law": 3372,
      "Next": 3373,
      "Same": 3374,
      "ef": 3375,
      "opp": 3376,
      "eng": 3377,
      "doll": 3378,
      "Caro": 3379,
      "Roy": 3380,
      "played": 3381,
      "sitting": 3382,
      "lives": 3383,
      "Ronnie": 3384,
      "posted": 3385,
      "Probably": 3386,
      "fancy": 3387,
      "tour": 3388,
      "thia": 3389,
      "outh": 3390,
      "beach": 3391,
      "ada": 3392,
      "absolutely": 3393,
      "Anita": 3394,
      "Heidi": 3395,
      "Luc": 3396,
      "Emi": 3397,
      "spec": 3398,
      "Ronald": 3399,
      "sleeping": 3400,
      "current": 3401,
      "experience": 3402,
      "yup": 3403,
      "ston": 3404,
      "everybody": 3405,
      "grad": 3406,
      "ggy": 3407,
      "contro": 3408,
      "collect": 3409,
      "deadline": 3410,
      "Dominic": 3411,
      "Call": 3412,
      "Kay": 3413,
      "Riley": 3414,
      "Tan": 3415,
      "Wo": 3416,
      "ath": 3417,
      "fire": 3418,
      "flying": 3419,
      "hum": 3420,
      "sat": 3421,
      "size": 3422,
      "hold": 3423,
      "laugh": 3424,
      "pool": 3425,
      "????": 3426,
      "Rosie": 3427,
      "Isabel": 3428,
      "Austin": 3429,
      "received": 3430,
      "Cal": 3431,
      "slow": 3432,
      "vation": 3433,
      "wro": 3434,
      "anim": 3435,
      "chill": 3436,
      "dest": 3437,
      "Sheila": 3438,
      "Jude": 3439,
      "trouble": 3440,
      "Amer": 3441,
      "figu": 3442,
      "turned": 3443,
      "training": 3444,
      "Elisabeth": 3445,
      "Happy": 3446,
      "wrote": 3447,
      "Tha": 3448,
      "Too": 3449,
      "Van": 3450,
      "zing": 3451,
      "reme": 3452,
      "writ": 3453,
      "glass": 3454,
      "aaaa": 3455,
      "Harper": 3456,
      "Julian": 3457,
      "Dou": 3458,
      "Fin": 3459,
      "daught": 3460,
      "anybody": 3461,
      "Seth": 3462,
      "Arnold": 3463,
      "Aga": 3464,
      "Abby": 3465,
      "hung": 3466,
      "17": 3467,
      "Ren": 3468,
      "Zara": 3469,
      "goo": 3470,
      "artic": 3471,
      "ational": 3472,
      "Alexis": 3473,
      "Paulina": 3474,
      "suppose": 3475,
      "centre": 3476,
      "easier": 3477,
      "passed": 3478,
      "copy": 3479,
      "episode": 3480,
      "husband": 3481,
      "Fi": 3482,
      "IT": 3483,
      "Kayla": 3484,
      "bon": 3485,
      "ctor": 3486,
      "rik": 3487,
      "conne": 3488,
      "Carter": 3489,
      "scared": 3490,
      "anned": 3491,
      "celebrate": 3492,
      "young": 3493,
      "Italian": 3494,
      "French": 3495,
      "bread": 3496,
      "ient": 3497,
      "wast": 3498,
      "icious": 3499,
      "rianna": 3500,
      "ield": 3501,
      "worst": 3502,
      "Dana": 3503,
      "Lynn": 3504,
      "Guys": 3505,
      "confirm": 3506,
      "Nah": 3507,
      "ON": 3508,
      "oc": 3509,
      "rina": 3510,
      "yd": 3511,
      "nope": 3512,
      "nobody": 3513,
      "ending": 3514,
      "yea": 3515,
      "priv": 3516,
      "pan": 3517,
      "ature": 3518,
      "lose": 3519,
      "logy": 3520,
      "elt": 3521,
      "herself": 3522,
      "bother": 3523,
      "assign": 3524,
      "ski": 3525,
      "police": 3526,
      "delay": 3527,
      "Violet": 3528,
      "hungry": 3529,
      "Aly": 3530,
      "Gwen": 3531,
      "avo": 3532,
      "Reg": 3533,
      "Never": 3534,
      "Claudia": 3535,
      "results": 3536,
      "Hil": 3537,
      "Tara": 3538,
      "fut": 3539,
      "hm": 3540,
      "hon": 3541,
      "cember": 3542,
      "Janice": 3543,
      "Clark": 3544,
      "Katy": 3545,
      "Joanne": 3546,
      "Frances": 3547,
      "Bryan": 3548,
      "Give": 3549,
      "Randy": 3550,
      "ime": 3551,
      "ias": 3552,
      "inny": 3553,
      "cance": 3554,
      "math": 3555,
      "propo": 3556,
      "prepar": 3557,
      "cheese": 3558,
      "cheaper": 3559,
      "Susie": 3560,
      "ggie": 3561,
      "organiz": 3562,
      "window": 3563,
      "camp": 3564,
      "schedule": 3565,
      "Cha": 3566,
      "Cra": 3567,
      "Fuck": 3568,
      "Hall": 3569,
      "Id": 3570,
      "Mill": 3571,
      "Xavier": 3572,
      "^^": 3573,
      "creat": 3574,
      "mi": 3575,
      "tina": 3576,
      "lee": 3577,
      "uses": 3578,
      "history": 3579,
      "guest": 3580,
      "twice": 3581,
      "Anything": 3582,
      "example": 3583,
      "prepared": 3584,
      "HAHA": 3585,
      "pregnant": 3586,
      "daughter": 3587,
      "ki": 3588,
      "lene": 3589,
      "ses": 3590,
      "zo": 3591,
      "ils": 3592,
      "July": 3593,
      "mond": 3594,
      "Billy": 3595,
      "Naomi": 3596,
      "Mrs": 3597,
      "Kathy": 3598,
      "considering": 3599,
      "invites": 3600,
      "graph": 3601,
      "future": 3602,
      "Ele": 3603,
      "Park": 3604,
      "Wanda": 3605,
      "YOU": 3606,
      "tney": 3607,
      "oun": 3608,
      "proud": 3609,
      "Russ": 3610,
      "Scarlett": 3611,
      "Cas": 3612,
      "Ga": 3613,
      "Gill": 3614,
      "Morgan": 3615,
      "Sab": 3616,
      "garden": 3617,
      "ks": 3618,
      "spl": 3619,
      "haps": 3620,
      "gover": 3621,
      "comfort": 3622,
      "Howard": 3623,
      "ground": 3624,
      "service": 3625,
      "certain": 3626,
      "Felix": 3627,
      "agreed": 3628,
      "stressed": 3629,
      "pleasure": 3630,
      "straight": 3631,
      "Cheryl": 3632,
      "conversation": 3633,
      "Gavin": 3634,
      "Todd": 3635,
      "ned": 3636,
      "stick": 3637,
      "shirt": 3638,
      "dele": 3639,
      "Christian": 3640,
      "wont": 3641,
      "December": 3642,
      "mming": 3643,
      "liter": 3644,
      "print": 3645,
      "Lizzy": 3646,
      "Maddie": 3647,
      "women": 3648,
      "recipe": 3649,
      "hurry": 3650,
      "managed": 3651,
      "Iris": 3652,
      "Nad": 3653,
      "York": 3654,
      "eh": 3655,
      "felt": 3656,
      "gro": 3657,
      "ram": 3658,
      "info": 3659,
      "incl": 3660,
      "rena": 3661,
      "isha": 3662,
      "orrow": 3663,
      "sula": 3664,
      "Marcus": 3665,
      "afterwards": 3666,
      "diet": 3667,
      "shower": 3668,
      "enjoyed": 3669,
      "grandma": 3670,
      "product": 3671,
      "travelling": 3672,
      "fantastic": 3673,
      "depends": 3674,
      "AS": 3675,
      "Kee": 3676,
      "Mac": 3677,
      "Way": 3678,
      "Yo": 3679,
      "ax": 3680,
      "btw": 3681,
      "cup": 3682,
      "fau": 3683,
      "research": 3684,
      "ism": 3685,
      "ense": 3686,
      "planned": 3687,
      "urt": 3688,
      "Tomorrow": 3689,
      "hahahaha": 3690,
      "type": 3691,
      "space": 3692,
      "against": 3693,
      "Danielle": 3694,
      "choco": 3695,
      "missing": 3696,
      "fied": 3697,
      "Elena": 3698,
      "Damn": 3699,
      "style": 3700,
      "Bu": 3701,
      "Ivy": 3702,
      "Last": 3703,
      "dle": 3704,
      "fic": 3705,
      "hind": 3706,
      "tom": 3707,
      "ties": 3708,
      "mood": 3709,
      "whats": 3710,
      "tru": 3711,
      "tract": 3712,
      "downstairs": 3713,
      "wonderful": 3714,
      "correct": 3715,
      "information": 3716,
      "langu": 3717,
      "atulations": 3718,
      "Greta": 3719,
      "Fab": 3720,
      "sco": 3721,
      "promo": 3722,
      "ility": 3723,
      "lesson": 3724,
      "cash": 3725,
      "strong": 3726,
      "Cathy": 3727,
      "syste": 3728,
      "issues": 3729,
      "Brandon": 3730,
      "decision": 3731,
      "Vanessa": 3732,
      "Hilary": 3733,
      "By": 3734,
      "Ms": 3735,
      "pric": 3736,
      "ino": 3737,
      "obvious": 3738,
      "clear": 3739,
      "Leslie": 3740,
      "swimming": 3741,
      "Ama": 3742,
      "Pre": 3743,
      "San": 3744,
      "Spain": 3745,
      "Tat": 3746,
      "pet": 3747,
      "vol": 3748,
      "whe": 3749,
      "anny": 3750,
      "tem": 3751,
      "notic": 3752,
      "Judith": 3753,
      "quit": 3754,
      "Jackson": 3755,
      "discount": 3756,
      "Shar": 3757,
      "Grand": 3758,
      "students": 3759,
      "Tere": 3760,
      "Natalia": 3761,
      "arrange": 3762,
      "Black": 3763,
      "bathroom": 3764,
      "football": 3765,
      "Kam": 3766,
      "eyes": 3767,
      "behind": 3768,
      "allow": 3769,
      "program": 3770,
      "lets": 3771,
      "wake": 3772,
      "shame": 3773,
      "smart": 3774,
      "beginning": 3775,
      "First": 3776,
      "Mila": 3777,
      "Miles": 3778,
      "bike": 3779,
      "dent": 3780,
      "egg": 3781,
      "tf": 3782,
      "tv": 3783,
      "ines": 3784,
      "lies": 3785,
      "cos": 3786,
      "didnt": 3787,
      "Christina": 3788,
      "anger": 3789,
      "ctions": 3790,
      "docu": 3791,
      "vote": 3792,
      "building": 3793,
      "Awesome": 3794,
      "Hanna": 3795,
      "ele": 3796,
      "sess": 3797,
      "ors": 3798,
      "note": 3799,
      "Marty": 3800,
      "fell": 3801,
      "boo": 3802,
      "bucks": 3803,
      "Harvey": 3804,
      "wearing": 3805,
      "Something": 3806,
      "Everything": 3807,
      "Ursula": 3808,
      "selves": 3809,
      "Teresa": 3810,
      "16": 3811,
      "Cour": 3812,
      "cous": 3813,
      "iant": 3814,
      "oes": 3815,
      "power": 3816,
      "tough": 3817,
      "meat": 3818,
      "bel": 3819,
      "ended": 3820,
      "feed": 3821,
      "worked": 3822,
      "comm": 3823,
      "ards": 3824,
      "Keith": 3825,
      "Teddy": 3826,
      "lady": 3827,
      "agrees": 3828,
      "piece": 3829,
      "Florence": 3830,
      "Agatha": 3831,
      "AM": 3832,
      "Om": 3833,
      "dark": 3834,
      "ific": 3835,
      "tax": 3836,
      "Its": 3837,
      "Timmy": 3838,
      "Clare": 3839,
      "single": 3840,
      "Camilla": 3841,
      "college": 3842,
      "Georgia": 3843,
      "Hunter": 3844,
      "Emilia": 3845,
      "system": 3846,
      "21": 3847,
      "Lin": 3848,
      "cry": 3849,
      "dating": 3850,
      "fy": 3851,
      "ige": 3852,
      "record": 3853,
      "erc": 3854,
      "ordered": 3855,
      "vet": 3856,
      "ality": 3857,
      "transfer": 3858,
      "flowers": 3859,
      "Regina": 3860,
      "Layla": 3861,
      "Sil": 3862,
      "Troy": 3863,
      "apo": 3864,
      "zie": 3865,
      "regu": 3866,
      "color": 3867,
      "ama": 3868,
      "enty": 3869,
      "Timothy": 3870,
      "Kylie": 3871,
      "wishes": 3872,
      "doubt": 3873,
      "Joyce": 3874,
      "article": 3875,
      "fault": 3876,
      "Mil": 3877,
      "bat": 3878,
      "fb": 3879,
      "weight": 3880,
      "alous": 3881,
      "shut": 3882,
      "plus": 3883,
      "Alright": 3884,
      "bitch": 3885,
      "Brid": 3886,
      "cats": 3887,
      "Today": 3888,
      "rilliant": 3889,
      "YES": 3890,
      "cul": 3891,
      "danc": 3892,
      "ron": 3893,
      "sn": 3894,
      "erg": 3895,
      "hah": 3896,
      "andler": 3897,
      "hood": 3898,
      "mob": 3899,
      "essay": 3900,
      "happening": 3901,
      "Only": 3902,
      "Brook": 3903,
      "ynthia": 3904,
      "orgeous": 3905,
      "practice": 3906,
      "favorite": 3907,
      "AA": 3908,
      "Dr": 3909,
      "Mal": 3910,
      "Pear": 3911,
      "cla": 3912,
      "dunno": 3913,
      "fat": 3914,
      "ging": 3915,
      "ied": 3916,
      "anish": 3917,
      "ardo": 3918,
      "asap": 3919,
      "area": 3920,
      "tek": 3921,
      "anywhere": 3922,
      "unfortunately": 3923,
      "Rosa": 3924,
      "cap": 3925,
      "keeps": 3926,
      "Natasha": 3927,
      "Valer": 3928,
      "basically": 3929,
      "client": 3930,
      "respons": 3931,
      "Renee": 3932,
      "Kasia": 3933,
      "Tess": 3934,
      "kick": 3935,
      "smo": 3936,
      "xo": 3937,
      "asleep": 3938,
      "tiv": 3939,
      "Chandler": 3940,
      "Also": 3941,
      "page": 3942,
      "Ricky": 3943,
      "Daria": 3944,
      "bloody": 3945,
      "hurt": 3946,
      "Bruno": 3947,
      "noticed": 3948,
      "crow": 3949,
      "dum": 3950,
      "ride": 3951,
      "oul": 3952,
      "eron": 3953,
      "atre": 3954,
      "els": 3955,
      "exerc": 3956,
      "stopped": 3957,
      "decor": 3958,
      "jealous": 3959,
      "cookies": 3960,
      "costs": 3961,
      "simple": 3962,
      "draw": 3963,
      "chocolate": 3964,
      "Com": 3965,
      "Glen": 3966,
      "Sof": 3967,
      "Tab": 3968,
      "Try": 3969,
      "bal": 3970,
      "four": 3971,
      "toile": 3972,
      "medi": 3973,
      "idk": 3974,
      "unny": 3975,
      "previous": 3976,
      "Dennis": 3977,
      "delicious": 3978,
      "Aiden": 3979,
      "Gail": 3980,
      "Hill": 3981,
      "Len": 3982,
      "Tiff": 3983,
      "bing": 3984,
      "fur": 3985,
      "memor": 3986,
      "vegan": 3987,
      "sey": 3988,
      "arely": 3989,
      "chie": 3990,
      "urch": 3991,
      "focus": 3992,
      "Luis": 3993,
      "Johnny": 3994,
      "gifts": 3995,
      "Serena": 3996,
      "?!?!": 3997,
      "desk": 3998,
      "HAT": 3999,
      "urious": 4000,
      "consider": 4001,
      "health": 4002,
      "ING": 4003,
      "cancelled": 4004,
      "Drew": 4005,
      "Fl": 4006,
      "Fel": 4007,
      "Katherine": 4008,
      "LL": 4009,
      "Ram": 4010,
      "gorgeous": 4011,
      "pes": 4012,
      "reach": 4013,
      "ican": 4014,
      "sooo": 4015,
      "social": 4016,
      "shif": 4017,
      "mag": 4018,
      "brand": 4019,
      "tells": 4020,
      "psy": 4021,
      "fridge": 4022,
      "Erica": 4023,
      "icular": 4024,
      "Isabelle": 4025,
      "Hugo": 4026,
      "professor": 4027,
      "crossed": 4028,
      "relation": 4029,
      "Wayne": 4030,
      "14": 4031,
      "Jod": 4032,
      "Tra": 4033,
      "cation": 4034,
      "fly": 4035,
      "iah": 4036,
      "tit": 4037,
      "vous": 4038,
      "roll": 4039,
      "cancel": 4040,
      "notice": 4041,
      "acks": 4042,
      "cell": 4043,
      "bum": 4044,
      "Alicia": 4045,
      "France": 4046,
      "aster": 4047,
      "gives": 4048,
      "Hailey": 4049,
      "fru": 4050,
      "topher": 4051,
      "spot": 4052,
      "fresh": 4053,
      "options": 4054,
      "ountain": 4055,
      "Faith": 4056,
      "Lawrence": 4057,
      "Die": 4058,
      "Fo": 4059,
      "pink": 4060,
      "iti": 4061,
      "ache": 4062,
      "Thx": 4063,
      "particular": 4064,
      "January": 4065,
      "Sammy": 4066,
      "apparently": 4067,
      "Mickey": 4068,
      "Shir": 4069,
      "Joey": 4070,
      "friday": 4071,
      "Brett": 4072,
      "Jayden": 4073,
      "Darren": 4074,
      "Berlin": 4075,
      "honestly": 4076,
      "manager": 4077,
      "healthy": 4078,
      "preparing": 4079,
      "regular": 4080,
      "Bridget": 4081,
      "crowd": 4082,
      "AN": 4083,
      "Day": 4084,
      "Ir": 4085,
      "Pi": 4086,
      "Tur": 4087,
      "dry": 4088,
      "pen": 4089,
      "soup": 4090,
      "ising": 4091,
      "issed": 4092,
      "state": 4093,
      "level": 4094,
      "seum": 4095,
      "amp": 4096,
      "ima": 4097,
      "urgent": 4098,
      "boys": 4099,
      "Rome": 4100,
      "calm": 4101,
      "similar": 4102,
      "Jesse": 4103,
      "Kitty": 4104,
      "cousin": 4105,
      "Even": 4106,
      "Sher": 4107,
      "Tris": 4108,
      "fab": 4109,
      "fill": 4110,
      "fers": 4111,
      "vier": 4112,
      "Marion": 4113,
      "dev": 4114,
      "department": 4115,
      "ianne": 4116,
      "helped": 4117,
      "Matilda": 4118,
      "picking": 4119,
      "Gregory": 4120,
      "media": 4121,
      "deser": 4122,
      "cret": 4123,
      "expected": 4124,
      "middle": 4125,
      "entire": 4126,
      "Gabrielle": 4127,
      "private": 4128,
      "Tiffany": 4129,
      "Diego": 4130,
      "Ac": 4131,
      "Aria": 4132,
      "Oc": 4133,
      "bi": 4134,
      "sle": 4135,
      "instru": 4136,
      "reck": 4137,
      "hates": 4138,
      "pres": 4139,
      "hibit": 4140,
      "possib": 4141,
      "Josephine": 4142,
      "charac": 4143,
      "cleaning": 4144,
      "listening": 4145,
      "vacation": 4146,
      "jacket": 4147,
      "assignment": 4148,
      "Sabrina": 4149,
      "language": 4150,
      "toilet": 4151,
      "24": 4152,
      "Honey": 4153,
      "Que": 4154,
      "Ter": 4155,
      "dance": 4156,
      "eye": 4157,
      "field": 4158,
      "gre": 4159,
      "hy": 4160,
      "pity": 4161,
      "rich": 4162,
      "meal": 4163,
      "veget": 4164,
      "sold": 4165,
      "otherwise": 4166,
      "scri": 4167,
      "spir": 4168,
      "akes": 4169,
      "awful": 4170,
      "student": 4171,
      "flights": 4172,
      "People": 4173,
      "Spanish": 4174,
      "control": 4175,
      "comfortable": 4176,
      "Omg": 4177,
      "mobile": 4178,
      "Cris": 4179,
      "Cynthia": 4180,
      "Lori": 4181,
      "gas": 4182,
      "ience": 4183,
      "non": 4184,
      "ore": 4185,
      "une": 4186,
      "infor": 4187,
      "asy": 4188,
      "impro": 4189,
      "raham": 4190,
      "plenty": 4191,
      "everywhere": 4192,
      "mistake": 4193,
      "Olivier": 4194,
      "famous": 4195,
      "mission": 4196,
      "raining": 4197,
      "ienna": 4198,
      "Olaf": 4199,
      "Debbie": 4200,
      "Vincent": 4201,
      "figure": 4202,
      "split": 4203,
      "Ally": 4204,
      "Cora": 4205,
      "Nik": 4206,
      "elect": 4207,
      "review": 4208,
      "atch": 4209,
      "wever": 4210,
      "tery": 4211,
      "museum": 4212,
      "Carson": 4213,
      "Juan": 4214,
      "ummer": 4215,
      "brought": 4216,
      "thalie": 4217,
      "decent": 4218,
      "medic": 4219,
      "born": 4220,
      "Nathalie": 4221,
      "Karl": 4222,
      "words": 4223,
      "Boris": 4224,
      "products": 4225,
      "Chel": 4226,
      "Tessa": 4227,
      "Yu": 4228,
      "ged": 4229,
      "har": 4230,
      "jour": 4231,
      "mand": 4232,
      "topic": 4233,
      "ises": 4234,
      "vered": 4235,
      "adv": 4236,
      "prob": 4237,
      "exhibit": 4238,
      "Jenna": 4239,
      "Archie": 4240,
      "More": 4241,
      "Edgar": 4242,
      "About": 4243,
      "walking": 4244,
      "Denise": 4245,
      "Stephen": 4246,
      "google": 4247,
      "prices": 4248,
      "dentist": 4249,
      "Chad": 4250,
      "Glad": 4251,
      "Ot": 4252,
      "Roman": 4253,
      "Sup": 4254,
      "sli": 4255,
      "yer": 4256,
      "become": 4257,
      "riam": 4258,
      "elma": 4259,
      "March": 4260,
      "uncle": 4261,
      "pls": 4262,
      "aff": 4263,
      "ular": 4264,
      "nervous": 4265,
      "checking": 4266,
      "disappoint": 4267,
      "settle": 4268,
      "Isaac": 4269,
      "heading": 4270,
      "subject": 4271,
      "annoying": 4272,
      "fingers": 4273,
      "Doug": 4274,
      "Dee": 4275,
      "Yuri": 4276,
      "owe": 4277,
      "ran": 4278,
      "tany": 4279,
      "kept": 4280,
      "neth": 4281,
      "covered": 4282,
      "aul": 4283,
      "...?": 4284,
      "whenever": 4285,
      "Star": 4286,
      "bigger": 4287,
      "Didn": 4288,
      "Freder": 4289,
      "descri": 4290,
      "exams": 4291,
      "public": 4292,
      "pasta": 4293,
      "Brittany": 4294,
      "Filip": 4295,
      "avoid": 4296,
      "Hillary": 4297,
      "Shirley": 4298,
      "Girl": 4299,
      "Has": 4300,
      "Had": 4301,
      "Harri": 4302,
      "Ivan": 4303,
      "Lex": 4304,
      "RE": 4305,
      "Rap": 4306,
      "Sal": 4307,
      "Tori": 4308,
      "tend": 4309,
      "vid": 4310,
      "xit": 4311,
      "inese": 4312,
      "tomat": 4313,
      "caught": 4314,
      "anni": 4315,
      "Anyone": 4316,
      "Simone": 4317,
      "crap": 4318,
      "Enjoy": 4319,
      "changing": 4320,
      "Suzanne": 4321,
      "mentioned": 4322,
      "whether": 4323,
      "Chelsea": 4324,
      ";/": 4325,
      "bra": 4326,
      "dist": 4327,
      "ez": 4328,
      "fl": 4329,
      "fac": 4330,
      "mountain": 4331,
      "rr": 4332,
      "third": 4333,
      "ppl": 4334,
      "screen": 4335,
      "helps": 4336,
      "final": 4337,
      "nights": 4338,
      "iously": 4339,
      "Shit": 4340,
      "driver": 4341,
      "design": 4342,
      "Darcy": 4343,
      "iculous": 4344,
      "dogs": 4345,
      "changes": 4346,
      "given": 4347,
      "advises": 4348,
      "dollars": 4349,
      "satis": 4350,
      "relationship": 4351,
      "Bert": 4352,
      "Mex": 4353,
      "Mitch": 4354,
      "Pal": 4355,
      "Ric": 4356,
      "dates": 4357,
      "grow": 4358,
      "sir": 4359,
      "icy": 4360,
      "although": 4361,
      "church": 4362,
      "istic": 4363,
      "shops": 4364,
      "Remember": 4365,
      "intro": 4366,
      "Nelly": 4367,
      "apan": 4368,
      "Looks": 4369,
      "Miriam": 4370,
      "Millie": 4371,
      "grocer": 4372,
      "Courtney": 4373,
      "((": 4374,
      "80": 4375,
      "Cuba": 4376,
      "Evie": 4377,
      "Jared": 4378,
      "Send": 4379,
      "curious": 4380,
      "gers": 4381,
      "ired": 4382,
      "por": 4383,
      "rand": 4384,
      "meant": 4385,
      "youre": 4386,
      "stal": 4387,
      "unity": 4388,
      "prefers": 4389,
      "Shelly": 4390,
      "Definitely": 4391,
      "Inter": 4392,
      "shows": 4393,
      "joining": 4394,
      "Grant": 4395,
      "200": 4396,
      "songs": 4397,
      "Jesus": 4398,
      "reservation": 4399,
      "Colin": 4400,
      "eggs": 4401,
      "2nd": 4402,
      "Jody": 4403,
      "Okey": 4404,
      "Swe": 4405,
      "UK": 4406,
      "bill": 4407,
      "cand": 4408,
      "ctive": 4409,
      "theatre": 4410,
      "lied": 4411,
      "roat": 4412,
      "!!!!!": 4413,
      "tran": 4414,
      "Monika": 4415,
      "Isn": 4416,
      "cafe": 4417,
      "closed": 4418,
      "lessons": 4419,
      "surger": 4420,
      "exciting": 4421,
      "issue": 4422,
      "hoping": 4423,
      "position": 4424,
      "Esme": 4425,
      "Hayden": 4426,
      "machine": 4427,
      "written": 4428,
      "Silvia": 4429,
      "apolog": 4430,
      "Kon": 4431,
      "Macy": 4432,
      "NY": 4433,
      "Sat": 4434,
      "Wes": 4435,
      "joking": 4436,
      "mill": 4437,
      "hall": 4438,
      "code": 4439,
      "tech": 4440,
      "Joel": 4441,
      "depress": 4442,
      "Carly": 4443,
      "quality": 4444,
      "Cole": 4445,
      "compet": 4446,
      "Jacqu": 4447,
      "Poor": 4448,
      "aaa": 4449,
      "!!!!!!!!": 4450,
      "organize": 4451,
      "blood": 4452,
      "package": 4453,
      "Morris": 4454,
      "Alexandra": 4455,
      "wallet": 4456,
      "Tamara": 4457,
      "delivery": 4458,
      "Craig": 4459,
      "8pm": 4460,
      "Crist": 4461,
      "Gil": 4462,
      "Mau": 4463,
      "Port": 4464,
      "Red": 4465,
      "Sis": 4466,
      "Sasha": 4467,
      "Talk": 4468,
      "gara": 4469,
      "admit": 4470,
      "perfor": 4471,
      "perhaps": 4472,
      "Christopher": 4473,
      "latest": 4474,
      "Neil": 4475,
      "hahahah": 4476,
      "Connie": 4477,
      "Kristen": 4478,
      "parking": 4479,
      "ridiculous": 4480,
      "Check": 4481,
      "Sidney": 4482,
      "washing": 4483,
      "literally": 4484,
      "Sofia": 4485,
      "60": 4486,
      "Bel": 4487,
      "From": 4488,
      "Japan": 4489,
      "brilliant": 4490,
      "cing": 4491,
      "five": 4492,
      "gs": 4493,
      "gust": 4494,
      "jump": 4495,
      "silly": 4496,
      "step": 4497,
      "antic": 4498,
      "ause": 4499,
      "anya": 4500,
      "agram": 4501,
      "Johnson": 4502,
      "scary": 4503,
      "spare": 4504,
      "calls": 4505,
      "Stefan": 4506,
      "stayed": 4507,
      "Street": 4508,
      "visited": 4509,
      "access": 4510,
      "charge": 4511,
      "Guess": 4512,
      "neighbor": 4513,
      "invitation": 4514,
      "yoga": 4515,
      "Beatrice": 4516,
      "destroy": 4517,
      "Casper": 4518,
      "Nadia": 4519,
      "Kamil": 4520,
      "Pearl": 4521,
      "disappointed": 4522,
      "Harriet": 4523,
      "Our": 4524,
      "Vince": 4525,
      "fed": 4526,
      "wit": 4527,
      "selling": 4528,
      "ofc": 4529,
      "ghan": 4530,
      "chi": 4531,
      "irk": 4532,
      "ustr": 4533,
      "somehow": 4534,
      "shar": 4535,
      "profile": 4536,
      "ables": 4537,
      "Stacey": 4538,
      "Frankie": 4539,
      "woke": 4540,
      "ival": 4541,
      "chap": 4542,
      "corner": 4543,
      "Seriously": 4544,
      "failed": 4545,
      "opport": 4546,
      "Idk": 4547,
      "includ": 4548,
      "Tatiana": 4549,
      "dancing": 4550,
      "slept": 4551,
      "EU": 4552,
      "Ton": 4553,
      "cab": 4554,
      "danger": 4555,
      "von": 4556,
      "wtf": 4557,
      "esco": 4558,
      "secret": 4559,
      "ution": 4560,
      "teen": 4561,
      "known": 4562,
      "fever": 4563,
      "Luna": 4564,
      "Luca": 4565,
      "iano": 4566,
      "phones": 4567,
      "Franklin": 4568,
      "Jeffrey": 4569,
      "paying": 4570,
      "Brexit": 4571,
      "Harold": 4572,
      "Apparently": 4573,
      "Wilson": 4574,
      "guests": 4575,
      "psycho": 4576,
      "Adele": 4577,
      "Jade": 4578,
      "Mis": 4579,
      "national": 4580,
      "rout": 4581,
      "thesis": 4582,
      "itar": 4583,
      "lead": 4584,
      "ays": 4585,
      "album": 4586,
      "idiot": 4587,
      "uts": 4588,
      "necess": 4589,
      "cohol": 4590,
      "veral": 4591,
      "within": 4592,
      "term": 4593,
      "Luk": 4594,
      "letter": 4595,
      "Carla": 4596,
      "eez": 4597,
      "helping": 4598,
      "Alexa": 4599,
      "udy": 4600,
      "mater": 4601,
      "tention": 4602,
      "texting": 4603,
      "German": 4604,
      "ladies": 4605,
      "Polish": 4606,
      "Lindsey": 4607,
      "13": 4608,
      "Fre": 4609,
      "Ty": 4610,
      "ahead": 4611,
      "euro": 4612,
      "ns": 4613,
      "pissed": 4614,
      "andra": 4615,
      "vest": 4616,
      "accom": 4617,
      "ala": 4618,
      "lda": 4619,
      "suc": 4620,
      "Marge": 4621,
      "terri": 4622,
      "Anette": 4623,
      "bull": 4624,
      "track": 4625,
      "dison": 4626,
      "Mathew": 4627,
      "mostly": 4628,
      "difference": 4629,
      "Eddie": 4630,
      "videos": 4631,
      "sky": 4632,
      "messages": 4633,
      "convinced": 4634,
      "Aub": 4635,
      "Bas": 4636,
      "Jax": 4637,
      "Rand": 4638,
      "Tanya": 4639,
      "fits": 4640,
      "mix": 4641,
      "rd": 4642,
      "saturday": 4643,
      "relat": 4644,
      "local": 4645,
      "sale": 4646,
      "offic": 4647,
      "Kev": 4648,
      "apple": 4649,
      "recommended": 4650,
      "create": 4651,
      "cru": 4652,
      "colleag": 4653,
      "Paige": 4654,
      "general": 4655,
      "_file": 4656,
      "mic": 4657,
      ".....": 4658,
      "sud": 4659,
      "laund": 4660,
      "pper": 4661,
      "cking": 4662,
      "Chuck": 4663,
      "iler": 4664,
      "risk": 4665,
      "contin": 4666,
      "Think": 4667,
      "joke": 4668,
      "bringing": 4669,
      "invol": 4670,
      "Trump": 4671,
      "000": 4672,
      "Kath": 4673,
      "Kenneth": 4674,
      "condition": 4675,
      "horror": 4676,
      "promised": 4677,
      "specific": 4678,
      "exhibition": 4679,
      "Hans": 4680,
      "Ula": 4681,
      "Xmas": 4682,
      "nite": 4683,
      "var": 4684,
      "respect": 4685,
      "ero": 4686,
      "icated": 4687,
      "ady": 4688,
      "inder": 4689,
      "chester": 4690,
      "quare": 4691,
      "regret": 4692,
      "Cameron": 4693,
      "Harris": 4694,
      "ugs": 4695,
      "Both": 4696,
      "Bethany": 4697,
      "rsly": 4698,
      "Congrats": 4699,
      "session": 4700,
      "claim": 4701,
      "surgery": 4702,
      "7pm": 4703,
      "Ela": 4704,
      "Het": 4705,
      "Mindy": 4706,
      "Summer": 4707,
      "gio": 4708,
      "jah": 4709,
      "lay": 4710,
      "😍😍": 4711,
      "orig": 4712,
      "leas": 4713,
      "havent": 4714,
      "active": 4715,
      "idia": 4716,
      "butter": 4717,
      "tered": 4718,
      "lazy": 4719,
      "concer": 4720,
      "bruary": 4721,
      "ilyn": 4722,
      "apply": 4723,
      "Haven": 4724,
      "hopefully": 4725,
      "download": 4726,
      "frustr": 4727,
      "personal": 4728,
      "Nichol": 4729,
      "finishing": 4730,
      "total": 4731,
      "credit": 4732,
      "Valerie": 4733,
      "origin": 4734,
      "70": 4735,
      "AP": 4736,
      "Cry": 4737,
      "Dex": 4738,
      "Fri": 4739,
      "Han": 4740,
      "Pay": 4741,
      "gress": 4742,
      "sme": 4743,
      "reco": 4744,
      "attention": 4745,
      "ico": 4746,
      "alcohol": 4747,
      "nel": 4748,
      "impossible": 4749,
      "somebody": 4750,
      "Marco": 4751,
      "saving": 4752,
      "olas": 4753,
      "contract": 4754,
      "Always": 4755,
      "Leila": 4756,
      "Meghan": 4757,
      "Annette": 4758,
      "spee": 4759,
      "rooms": 4760,
      "clock": 4761,
      "Allie": 4762,
      "password": 4763,
      "Gabi": 4764,
      "Magda": 4765,
      "spending": 4766,
      "learning": 4767,
      "introdu": 4768,
      "sudden": 4769,
      "Cy": 4770,
      "bask": 4771,
      "ey": 4772,
      "ped": 4773,
      "vir": 4774,
      "hem": 4775,
      "stat": 4776,
      "velo": 4777,
      "several": 4778,
      "gold": 4779,
      "iel": 4780,
      "tember": 4781,
      "aunt": 4782,
      "def": 4783,
      "Chinese": 4784,
      "iling": 4785,
      "aged": 4786,
      "Inst": 4787,
      "Better": 4788,
      "Elijah": 4789,
      "presents": 4790,
      "accord": 4791,
      "attack": 4792,
      "Karol": 4793,
      "ashion": 4794,
      "expecting": 4795,
      "embar": 4796,
      "throwing": 4797,
      "waste": 4798,
      "pressure": 4799,
      "Cristina": 4800,
      "garage": 4801,
      "performan": 4802,
      "dangerous": 4803,
      "Dra": 4804,
      "Kier": 4805,
      "Lora": 4806,
      "Mc": 4807,
      "apart": 4808,
      "equ": 4809,
      "fla": 4810,
      "site": 4811,
      "rett": 4812,
      "reali": 4813,
      "llen": 4814,
      "heav": 4815,
      "bella": 4816,
      "anytime": 4817,
      "trick": 4818,
      "grid": 4819,
      "Debor": 4820,
      "stor": 4821,
      "specially": 4822,
      "careful": 4823,
      "shares": 4824,
      "singing": 4825,
      "hhh": 4826,
      "Denis": 4827,
      "Shawn": 4828,
      "reminds": 4829,
      "juice": 4830,
      "empty": 4831,
      "Alfred": 4832,
      "Trish": 4833,
      "mountains": 4834,
      "\"?": 4835,
      "Bri": 4836,
      "Ci": 4837,
      "Cass": 4838,
      "EE": 4839,
      "ID": 4840,
      "Sho": 4841,
      "gay": 4842,
      "pages": 4843,
      "tre": 4844,
      "staff": 4845,
      "location": 4846,
      "adul": 4847,
      "Noel": 4848,
      "conven": 4849,
      "Willow": 4850,
      "picked": 4851,
      "awk": 4852,
      "gged": 4853,
      "Ellis": 4854,
      "believes": 4855,
      "versary": 4856,
      "postp": 4857,
      "profession": 4858,
      "obviously": 4859,
      "Brooklyn": 4860,
      "Otto": 4861,
      "anniversary": 4862,
      "Aubrey": 4863,
      "Nicholas": 4864,
      "Crystal": 4865,
      "3rd": 4866,
      ";(": 4867,
      ";*": 4868,
      "AT": 4869,
      "Ala": 4870,
      "Graham": 4871,
      "IS": 4872,
      "Kend": 4873,
      "OW": 4874,
      "bout": 4875,
      "bak": 4876,
      "ique": 4877,
      "kk": 4878,
      "kiss": 4879,
      "nit": 4880,
      "iny": 4881,
      "island": 4882,
      "goss": 4883,
      "hole": 4884,
      "union": 4885,
      "taste": 4886,
      "seemed": 4887,
      "common": 4888,
      "guitar": 4889,
      "quiet": 4890,
      "pical": 4891,
      ":-/": 4892,
      "Most": 4893,
      "studies": 4894,
      "fucked": 4895,
      "turns": 4896,
      "Allison": 4897,
      "Elias": 4898,
      "insane": 4899,
      "Peggy": 4900,
      "salad": 4901,
      "papers": 4902,
      "extreme": 4903,
      "positive": 4904,
      "................": 4905,
      "Pretty": 4906,
      "Freya": 4907,
      "basket": 4908,
      "according": 4909,
      "1st": 4910,
      "Ham": 4911,
      "Miley": 4912,
      "Muri": 4913,
      "PL": 4914,
      "Raf": 4915,
      "bake": 4916,
      "bunch": 4917,
      "barely": 4918,
      "cir": 4919,
      "emo": 4920,
      "han": 4921,
      "ius": 4922,
      "phe": 4923,
      "rac": 4924,
      "sil": 4925,
      "wha": 4926,
      "irty": 4927,
      "Martina": 4928,
      "anta": 4929,
      "ife": 4930,
      "rage": 4931,
      "anyways": 4932,
      "bow": 4933,
      "consu": 4934,
      "Jules": 4935,
      "appe": 4936,
      "appear": 4937,
      "Dear": 4938,
      "Shan": 4939,
      "older": 4940,
      "Ingrid": 4941,
      "offered": 4942,
      "version": 4943,
      "Gaby": 4944,
      "Camille": 4945,
      "Vicki": 4946,
      "itional": 4947,
      "fixed": 4948,
      "quickly": 4949,
      "Rodney": 4950,
      "sports": 4951,
      "Bonnie": 4952,
      "Gabe": 4953,
      "Keep": 4954,
      "shift": 4955,
      "satisfied": 4956,
      "laundry": 4957,
      "))": 4958,
      ").": 4959,
      "35": 4960,
      "Cause": 4961,
      "Nel": 4962,
      "Syd": 4963,
      "Tesco": 4964,
      "Yann": 4965,
      "bh": 4966,
      "data": 4967,
      "ethe": 4968,
      "fet": 4969,
      "fund": 4970,
      "jor": 4971,
      "ator": 4972,
      "vember": 4973,
      "beers": 4974,
      "rock": 4975,
      "ides": 4976,
      "upload": 4977,
      "partner": 4978,
      "scr": 4979,
      "cars": 4980,
      "Cooper": 4981,
      "direct": 4982,
      "closer": 4983,
      "Conor": 4984,
      "landed": 4985,
      "Doris": 4986,
      "voice": 4987,
      "Mira": 4988,
      "February": 4989,
      "reception": 4990,
      "budget": 4991,
      "Zachary": 4992,
      "document": 4993,
      "Flora": 4994,
      "speech": 4995,
      "performance": 4996,
      "Muriel": 4997,
      "etheart": 4998,
      "Lor": 4999
    },
    "merges": [
      [
        "t",
        "h"
      ],
      [
        "i",
        "n"
      ],
      [
        "a",
        "n"
      ],
      [
        "o",
        "u"
      ],
      [
        "r",
        "e"
      ],
      [
        "o",
        "n"
      ],
      [
        "e",
        "r"
      ],
      [
        "a",
        "t"
      ],
      [
        "t",
        "o"
      ],
      [
        "th",
        "e"
      ],
      [
        "l",
        "l"
      ],
      [
        "in",
        "g"
      ],
      [
        "m",
        "e"
      ],
      [
        "i",
        "s"
      ],
      [
        "o",
        "r"
      ],
      [
        "a",
        "r"
      ],
      [
        "i",
        "t"
      ],
      [
        "y",
        "ou"
      ],
      [
        "e",
        "n"
      ],
      [
        "h",
        "e"
      ],
      [
        "s",
        "t"
      ],
      [
        "l",
        "e"
      ],
      [
        "h",
        "a"
      ],
      [
        "an",
        "d"
      ],
      [
        "v",
        "e"
      ],
      [
        "a",
        "y"
      ],
      [
        "n",
        "o"
      ],
      [
        "b",
        "e"
      ],
      [
        "a",
        "s"
      ],
      [
        "i",
        "c"
      ],
      [
        "e",
        "s"
      ],
      [
        "e",
        "d"
      ],
      [
        "w",
        "i"
      ],
      [
        "s",
        "o"
      ],
      [
        "s",
        "e"
      ],
      [
        "g",
        "o"
      ],
      [
        "e",
        "t"
      ],
      [
        "l",
        "i"
      ],
      [
        "w",
        "e"
      ],
      [
        "h",
        "o"
      ],
      [
        "f",
        "or"
      ],
      [
        "a",
        "c"
      ],
      [
        "r",
        "o"
      ],
      [
        "k",
        "e"
      ],
      [
        "a",
        "l"
      ],
      [
        "i",
        "d"
      ],
      [
        "o",
        "f"
      ],
      [
        "u",
        "t"
      ],
      [
        ".",
        "."
      ],
      [
        "a",
        "ll"
      ],
      [
        "n",
        "e"
      ],
      [
        "a",
        "re"
      ],
      [
        "g",
        "h"
      ],
      [
        "l",
        "d"
      ],
      [
        "h",
        "at"
      ],
      [
        "r",
        "i"
      ],
      [
        "th",
        "at"
      ],
      [
        "d",
        "o"
      ],
      [
        "l",
        "o"
      ],
      [
        "c",
        "o"
      ],
      [
        "a",
        "m"
      ],
      [
        "a",
        "d"
      ],
      [
        "l",
        "y"
      ],
      [
        "wi",
        "ll"
      ],
      [
        "a",
        "b"
      ],
      [
        "no",
        "w"
      ],
      [
        "ou",
        "t"
      ],
      [
        "ha",
        "ve"
      ],
      [
        "o",
        "k"
      ],
      [
        "n",
        "d"
      ],
      [
        "c",
        "h"
      ],
      [
        "t",
        "i"
      ],
      [
        "gh",
        "t"
      ],
      [
        "v",
        "er"
      ],
      [
        "i",
        "m"
      ],
      [
        "i",
        "e"
      ],
      [
        "r",
        "y"
      ],
      [
        "on",
        "e"
      ],
      [
        "m",
        "y"
      ],
      [
        "wi",
        "th"
      ],
      [
        "b",
        "ut"
      ],
      [
        "ou",
        "ld"
      ],
      [
        "c",
        "an"
      ],
      [
        "s",
        "u"
      ],
      [
        "d",
        "ay"
      ],
      [
        "t",
        "e"
      ],
      [
        "i",
        "r"
      ],
      [
        "u",
        "st"
      ],
      [
        "o",
        "d"
      ],
      [
        "no",
        "t"
      ],
      [
        "so",
        "me"
      ],
      [
        "e",
        "l"
      ],
      [
        "k",
        "now"
      ],
      [
        "M",
        "ar"
      ],
      [
        "a",
        "h"
      ],
      [
        "an",
        "t"
      ],
      [
        "l",
        "a"
      ],
      [
        "w",
        "as"
      ],
      [
        "t",
        "er"
      ],
      [
        "u",
        "s"
      ],
      [
        "th",
        "ing"
      ],
      [
        "h",
        "er"
      ],
      [
        "i",
        "f"
      ],
      [
        "i",
        "ll"
      ],
      [
        "en",
        "d"
      ],
      [
        "m",
        "o"
      ],
      [
        "in",
        "k"
      ],
      [
        "all",
        "y"
      ],
      [
        "a",
        "u"
      ],
      [
        "th",
        "er"
      ],
      [
        "ab",
        "out"
      ],
      [
        "w",
        "hat"
      ],
      [
        "i",
        "a"
      ],
      [
        "w",
        "or"
      ],
      [
        "J",
        "o"
      ],
      [
        "d",
        "on"
      ],
      [
        "f",
        "e"
      ],
      [
        "s",
        "h"
      ],
      [
        "n",
        "a"
      ],
      [
        "at",
        "e"
      ],
      [
        "w",
        "h"
      ],
      [
        "r",
        "a"
      ],
      [
        "p",
        "p"
      ],
      [
        "th",
        "is"
      ],
      [
        "i",
        "on"
      ],
      [
        "an",
        "k"
      ],
      [
        "an",
        "y"
      ],
      [
        "g",
        "e"
      ],
      [
        "p",
        "e"
      ],
      [
        "m",
        "a"
      ],
      [
        "u",
        "p"
      ],
      [
        "ic",
        "k"
      ],
      [
        "T",
        "he"
      ],
      [
        "j",
        "ust"
      ],
      [
        "..",
        "."
      ],
      [
        "g",
        "et"
      ],
      [
        "ac",
        "k"
      ],
      [
        "li",
        "ke"
      ],
      [
        "o",
        "m"
      ],
      [
        "u",
        "n"
      ],
      [
        "s",
        "he"
      ],
      [
        "A",
        "n"
      ],
      [
        "y",
        "e"
      ],
      [
        "in",
        "e"
      ],
      [
        "i",
        "le"
      ],
      [
        "p",
        "l"
      ],
      [
        "the",
        "re"
      ],
      [
        "you",
        "r"
      ],
      [
        "w",
        "ant"
      ],
      [
        "th",
        "ink"
      ],
      [
        "c",
        "e"
      ],
      [
        "en",
        "t"
      ],
      [
        "!",
        "!"
      ],
      [
        "ti",
        "me"
      ],
      [
        "n",
        "t"
      ],
      [
        "ou",
        "r"
      ],
      [
        "s",
        "a"
      ],
      [
        "in",
        "d"
      ],
      [
        "ic",
        "e"
      ],
      [
        "H",
        "e"
      ],
      [
        "N",
        "o"
      ],
      [
        "t",
        "a"
      ],
      [
        "d",
        "e"
      ],
      [
        "o",
        "l"
      ],
      [
        "se",
        "e"
      ],
      [
        "ar",
        "t"
      ],
      [
        "the",
        "y"
      ],
      [
        "u",
        "r"
      ],
      [
        "o",
        "b"
      ],
      [
        "c",
        "k"
      ],
      [
        "C",
        "h"
      ],
      [
        "p",
        "ro"
      ],
      [
        "go",
        "ing"
      ],
      [
        "w",
        "ay"
      ],
      [
        "i",
        "l"
      ],
      [
        "I",
        "t"
      ],
      [
        "d",
        "id"
      ],
      [
        "i",
        "ght"
      ],
      [
        "ver",
        "y"
      ],
      [
        "he",
        "re"
      ],
      [
        "wor",
        "k"
      ],
      [
        "b",
        "o"
      ],
      [
        ":",
        ")"
      ],
      [
        "e",
        "x"
      ],
      [
        "a",
        "g"
      ],
      [
        "s",
        "s"
      ],
      [
        "co",
        "m"
      ],
      [
        "Y",
        "ou"
      ],
      [
        "ne",
        "ed"
      ],
      [
        "ro",
        "m"
      ],
      [
        "o",
        "w"
      ],
      [
        "r",
        "is"
      ],
      [
        "ha",
        "s"
      ],
      [
        "f",
        "ile"
      ],
      [
        "A",
        "nd"
      ],
      [
        "h",
        "is"
      ],
      [
        "ho",
        "w"
      ],
      [
        "o",
        "p"
      ],
      [
        "f",
        "rom"
      ],
      [
        "go",
        "od"
      ],
      [
        "W",
        "e"
      ],
      [
        "to",
        "o"
      ],
      [
        "g",
        "u"
      ],
      [
        "ar",
        "d"
      ],
      [
        "co",
        "me"
      ],
      [
        "m",
        "or"
      ],
      [
        "es",
        "s"
      ],
      [
        "ro",
        "w"
      ],
      [
        "file",
        "_"
      ],
      [
        "go",
        "t"
      ],
      [
        "h",
        "im"
      ],
      [
        "W",
        "hat"
      ],
      [
        "ou",
        "nd"
      ],
      [
        "c",
        "on"
      ],
      [
        "v",
        "en"
      ],
      [
        "e",
        "k"
      ],
      [
        "re",
        "ally"
      ],
      [
        "w",
        "ould"
      ],
      [
        "id",
        "e"
      ],
      [
        "p",
        "er"
      ],
      [
        "we",
        "ek"
      ],
      [
        "ne",
        "w"
      ],
      [
        "T",
        "h"
      ],
      [
        "me",
        "et"
      ],
      [
        "m",
        "u"
      ],
      [
        "p",
        "re"
      ],
      [
        "c",
        "t"
      ],
      [
        "u",
        "e"
      ],
      [
        "a",
        "f"
      ],
      [
        "ank",
        "s"
      ],
      [
        "ac",
        "e"
      ],
      [
        "the",
        "m"
      ],
      [
        "p",
        "o"
      ],
      [
        "b",
        "er"
      ],
      [
        "T",
        "om"
      ],
      [
        "ha",
        "ha"
      ],
      [
        "re",
        "d"
      ],
      [
        "at",
        "ion"
      ],
      [
        "o",
        "ther"
      ],
      [
        "c",
        "he"
      ],
      [
        "Y",
        "e"
      ],
      [
        "su",
        "re"
      ],
      [
        "re",
        "ad"
      ],
      [
        "it",
        "e"
      ],
      [
        "in",
        "a"
      ],
      [
        "lo",
        "ok"
      ],
      [
        "re",
        "at"
      ],
      [
        "ri",
        "ght"
      ],
      [
        "b",
        "le"
      ],
      [
        "the",
        "n"
      ],
      [
        "b",
        "y"
      ],
      [
        "b",
        "u"
      ],
      [
        "f",
        "o"
      ],
      [
        "wh",
        "en"
      ],
      [
        "a",
        "v"
      ],
      [
        "i",
        "ve"
      ],
      [
        "u",
        "re"
      ],
      [
        "al",
        "k"
      ],
      [
        "sh",
        "ould"
      ],
      [
        "A",
        "l"
      ],
      [
        "L",
        "u"
      ],
      [
        "le",
        "t"
      ],
      [
        "a",
        "ve"
      ],
      [
        "mor",
        "row"
      ],
      [
        "to",
        "morrow"
      ],
      [
        "a",
        "me"
      ],
      [
        "Jo",
        "h"
      ],
      [
        "b",
        "ack"
      ],
      [
        "he",
        "l"
      ],
      [
        "n",
        "y"
      ],
      [
        "C",
        "ar"
      ],
      [
        "li",
        "e"
      ],
      [
        "S",
        "he"
      ],
      [
        "i",
        "g"
      ],
      [
        "on",
        "g"
      ],
      [
        "J",
        "u"
      ],
      [
        "ac",
        "t"
      ],
      [
        "x",
        "t"
      ],
      [
        "t",
        "y"
      ],
      [
        "S",
        "o"
      ],
      [
        "Joh",
        "n"
      ],
      [
        "ho",
        "me"
      ],
      [
        "u",
        "m"
      ],
      [
        "F",
        "r"
      ],
      [
        "mo",
        "re"
      ],
      [
        "p",
        "art"
      ],
      [
        "p",
        "ho"
      ],
      [
        "Ch",
        "ris"
      ],
      [
        "a",
        "st"
      ],
      [
        "pho",
        "to"
      ],
      [
        "ha",
        "d"
      ],
      [
        "mu",
        "ch"
      ],
      [
        "as",
        "k"
      ],
      [
        "ay",
        "be"
      ],
      [
        "B",
        "ut"
      ],
      [
        "ta",
        "ke"
      ],
      [
        "s",
        "c"
      ],
      [
        "as",
        "s"
      ],
      [
        "we",
        "ll"
      ],
      [
        "do",
        "es"
      ],
      [
        "ou",
        "s"
      ],
      [
        "of",
        "f"
      ],
      [
        "c",
        "au"
      ],
      [
        "w",
        "a"
      ],
      [
        "P",
        "et"
      ],
      [
        "O",
        "k"
      ],
      [
        "be",
        "en"
      ],
      [
        "p",
        "le"
      ],
      [
        "af",
        "ter"
      ],
      [
        "Ye",
        "ah"
      ],
      [
        "c",
        "ould"
      ],
      [
        "Y",
        "es"
      ],
      [
        "i",
        "an"
      ],
      [
        "lo",
        "ve"
      ],
      [
        "cau",
        "se"
      ],
      [
        "to",
        "day"
      ],
      [
        "u",
        "l"
      ],
      [
        "t",
        "alk"
      ],
      [
        "e",
        "e"
      ],
      [
        "some",
        "thing"
      ],
      [
        "i",
        "ke"
      ],
      [
        "p",
        "h"
      ],
      [
        "me",
        "nt"
      ],
      [
        "ha",
        "pp"
      ],
      [
        "e",
        "very"
      ],
      [
        "a",
        "in"
      ],
      [
        "ou",
        "gh"
      ],
      [
        "H",
        "ow"
      ],
      [
        "D",
        "an"
      ],
      [
        "b",
        "r"
      ],
      [
        "s",
        "p"
      ],
      [
        "i",
        "ly"
      ],
      [
        "E",
        "m"
      ],
      [
        "e",
        "p"
      ],
      [
        "s",
        "ay"
      ],
      [
        "P",
        "au"
      ],
      [
        "t",
        "on"
      ],
      [
        "ll",
        "y"
      ],
      [
        "J",
        "an"
      ],
      [
        "T",
        "hat"
      ],
      [
        "S",
        "am"
      ],
      [
        "W",
        "h"
      ],
      [
        "t",
        "r"
      ],
      [
        "The",
        "y"
      ],
      [
        "ye",
        "ah"
      ],
      [
        "y",
        "es"
      ],
      [
        "or",
        "ry"
      ],
      [
        "wa",
        "it"
      ],
      [
        "f",
        "f"
      ],
      [
        "?",
        "?"
      ],
      [
        "w",
        "on"
      ],
      [
        "th",
        "an"
      ],
      [
        "O",
        "h"
      ],
      [
        "la",
        "st"
      ],
      [
        "g",
        "reat"
      ],
      [
        "q",
        "u"
      ],
      [
        "c",
        "all"
      ],
      [
        "er",
        "s"
      ],
      [
        "K",
        "ate"
      ],
      [
        "ic",
        "a"
      ],
      [
        "is",
        "h"
      ],
      [
        "ar",
        "a"
      ],
      [
        "e",
        "ven"
      ],
      [
        "y",
        "s"
      ],
      [
        "read",
        "y"
      ],
      [
        "ne",
        "xt"
      ],
      [
        "be",
        "t"
      ],
      [
        "n",
        "ing"
      ],
      [
        "w",
        "ho"
      ],
      [
        "o",
        "o"
      ],
      [
        "st",
        "ill"
      ],
      [
        "m",
        "an"
      ],
      [
        "as",
        "e"
      ],
      [
        "ou",
        "ght"
      ],
      [
        "f",
        "ri"
      ],
      [
        "H",
        "i"
      ],
      [
        "ma",
        "ke"
      ],
      [
        "w",
        "here"
      ],
      [
        "bu",
        "y"
      ],
      [
        "wh",
        "y"
      ],
      [
        "w",
        "at"
      ],
      [
        "did",
        "n"
      ],
      [
        "fri",
        "end"
      ],
      [
        "te",
        "ll"
      ],
      [
        "or",
        "t"
      ],
      [
        "lo",
        "t"
      ],
      [
        "c",
        "y"
      ],
      [
        "g",
        "r"
      ],
      [
        "A",
        "le"
      ],
      [
        "B",
        "e"
      ],
      [
        "hel",
        "p"
      ],
      [
        "J",
        "ack"
      ],
      [
        "m",
        "in"
      ],
      [
        "be",
        "cause"
      ],
      [
        "pl",
        "ace"
      ],
      [
        ";",
        ")"
      ],
      [
        "Pet",
        "er"
      ],
      [
        "Mar",
        "y"
      ],
      [
        "u",
        "ck"
      ],
      [
        "J",
        "en"
      ],
      [
        "file_",
        "photo"
      ],
      [
        "ic",
        "h"
      ],
      [
        "ye",
        "ar"
      ],
      [
        "ab",
        "le"
      ],
      [
        "R",
        "ob"
      ],
      [
        "R",
        "o"
      ],
      [
        "a",
        "k"
      ],
      [
        "re",
        "e"
      ],
      [
        "P",
        "at"
      ],
      [
        "t",
        "ry"
      ],
      [
        "li",
        "a"
      ],
      [
        "j",
        "o"
      ],
      [
        "M",
        "ike"
      ],
      [
        "Ale",
        "x"
      ],
      [
        "th",
        "anks"
      ],
      [
        "D",
        "on"
      ],
      [
        "A",
        "d"
      ],
      [
        "D",
        "o"
      ],
      [
        "re",
        "st"
      ],
      [
        "is",
        "t"
      ],
      [
        "o",
        "ver"
      ],
      [
        "ti",
        "on"
      ],
      [
        "i",
        "z"
      ],
      [
        "v",
        "ing"
      ],
      [
        "K",
        "e"
      ],
      [
        "c",
        "l"
      ],
      [
        "An",
        "na"
      ],
      [
        "u",
        "d"
      ],
      [
        "w",
        "n"
      ],
      [
        "op",
        "le"
      ],
      [
        "t",
        "ing"
      ],
      [
        "i",
        "es"
      ],
      [
        "m",
        "ber"
      ],
      [
        "m",
        "on"
      ],
      [
        "fe",
        "el"
      ],
      [
        "M",
        "on"
      ],
      [
        "a",
        "ke"
      ],
      [
        "re",
        "n"
      ],
      [
        "an",
        "s"
      ],
      [
        "Pau",
        "l"
      ],
      [
        "want",
        "s"
      ],
      [
        "L",
        "e"
      ],
      [
        "f",
        "in"
      ],
      [
        "l",
        "at"
      ],
      [
        "a",
        "pp"
      ],
      [
        "com",
        "ing"
      ],
      [
        "we",
        "re"
      ],
      [
        "bo",
        "ok"
      ],
      [
        "does",
        "n"
      ],
      [
        "ar",
        "y"
      ],
      [
        "n",
        "ice"
      ],
      [
        "M",
        "at"
      ],
      [
        "way",
        "s"
      ],
      [
        "pe",
        "ople"
      ],
      [
        "l",
        "f"
      ],
      [
        "He",
        "y"
      ],
      [
        "b",
        "it"
      ],
      [
        "m",
        "aybe"
      ],
      [
        "an",
        "na"
      ],
      [
        "s",
        "on"
      ],
      [
        "on",
        "ly"
      ],
      [
        "c",
        "ar"
      ],
      [
        "s",
        "orry"
      ],
      [
        "G",
        "o"
      ],
      [
        "We",
        "ll"
      ],
      [
        "th",
        "a"
      ],
      [
        "ble",
        "m"
      ],
      [
        "D",
        "e"
      ],
      [
        "M",
        "e"
      ],
      [
        "bet",
        "ter"
      ],
      [
        "Th",
        "anks"
      ],
      [
        "f",
        "ind"
      ],
      [
        "pro",
        "blem"
      ],
      [
        "W",
        "ill"
      ],
      [
        "s",
        "ho"
      ],
      [
        "it",
        "y"
      ],
      [
        "ac",
        "h"
      ],
      [
        "Mar",
        "k"
      ],
      [
        "B",
        "r"
      ],
      [
        "u",
        "nd"
      ],
      [
        "n",
        "ight"
      ],
      [
        "g",
        "an"
      ],
      [
        "S",
        "te"
      ],
      [
        "m",
        "is"
      ],
      [
        "ar",
        "ry"
      ],
      [
        "s",
        "to"
      ],
      [
        "c",
        "ou"
      ],
      [
        "L",
        "o"
      ],
      [
        "fo",
        "re"
      ],
      [
        "s",
        "end"
      ],
      [
        "g",
        "ive"
      ],
      [
        "al",
        "ready"
      ],
      [
        "m",
        "as"
      ],
      [
        "t",
        "w"
      ],
      [
        "st",
        "art"
      ],
      [
        "ag",
        "ain"
      ],
      [
        "J",
        "e"
      ],
      [
        "s",
        "er"
      ],
      [
        "ton",
        "ight"
      ],
      [
        "m",
        "m"
      ],
      [
        "part",
        "y"
      ],
      [
        "l",
        "ate"
      ],
      [
        "An",
        "n"
      ],
      [
        "B",
        "en"
      ],
      [
        "r",
        "ic"
      ],
      [
        "t",
        "ra"
      ],
      [
        "f",
        "ir"
      ],
      [
        "ll",
        "e"
      ],
      [
        "v",
        "is"
      ],
      [
        "as",
        "on"
      ],
      [
        "n",
        "er"
      ],
      [
        "c",
        "i"
      ],
      [
        "h",
        "i"
      ],
      [
        "pl",
        "ay"
      ],
      [
        "M",
        "ic"
      ],
      [
        "ir",
        "l"
      ],
      [
        "b",
        "ab"
      ],
      [
        "any",
        "thing"
      ],
      [
        "b",
        "us"
      ],
      [
        "st",
        "er"
      ],
      [
        "wat",
        "ch"
      ],
      [
        "1",
        "0"
      ],
      [
        "me",
        "an"
      ],
      [
        "l",
        "ong"
      ],
      [
        "J",
        "ust"
      ],
      [
        "t",
        "le"
      ],
      [
        "al",
        "ways"
      ],
      [
        "che",
        "ck"
      ],
      [
        "Jan",
        "e"
      ],
      [
        "d",
        "is"
      ],
      [
        "O",
        "li"
      ],
      [
        "T",
        "im"
      ],
      [
        "ide",
        "a"
      ],
      [
        "o",
        "h"
      ],
      [
        "g",
        "if"
      ],
      [
        "C",
        "an"
      ],
      [
        "S",
        "ure"
      ],
      [
        "ch",
        "an"
      ],
      [
        "Ch",
        "ar"
      ],
      [
        "d",
        "r"
      ],
      [
        "M",
        "a"
      ],
      [
        "ame",
        "s"
      ],
      [
        "the",
        "ir"
      ],
      [
        "al",
        "so"
      ],
      [
        "happ",
        "en"
      ],
      [
        "R",
        "e"
      ],
      [
        "in",
        "t"
      ],
      [
        "G",
        "e"
      ],
      [
        "gu",
        "ys"
      ],
      [
        "an",
        "n"
      ],
      [
        "I",
        "s"
      ],
      [
        "i",
        "o"
      ],
      [
        "f",
        "un"
      ],
      [
        "st",
        "ay"
      ],
      [
        "h",
        "our"
      ],
      [
        "re",
        "g"
      ],
      [
        "i",
        "ous"
      ],
      [
        "be",
        "fore"
      ],
      [
        "f",
        "ine"
      ],
      [
        "le",
        "y"
      ],
      [
        "!!",
        "!"
      ],
      [
        "H",
        "a"
      ],
      [
        "c",
        "our"
      ],
      [
        "u",
        "b"
      ],
      [
        "g",
        "irl"
      ],
      [
        "re",
        "ss"
      ],
      [
        "ar",
        "ound"
      ],
      [
        "br",
        "ing"
      ],
      [
        "J",
        "im"
      ],
      [
        "p",
        "m"
      ],
      [
        "to",
        "r"
      ],
      [
        "day",
        "s"
      ],
      [
        "so",
        "on"
      ],
      [
        "v",
        "ia"
      ],
      [
        "er",
        "t"
      ],
      [
        "th",
        "ought"
      ],
      [
        "L",
        "au"
      ],
      [
        "fir",
        "st"
      ],
      [
        "S",
        "t"
      ],
      [
        "A",
        "re"
      ],
      [
        ":",
        "("
      ],
      [
        "ll",
        "a"
      ],
      [
        "one",
        "y"
      ],
      [
        "y",
        "et"
      ],
      [
        "ound",
        "s"
      ],
      [
        "cour",
        "se"
      ],
      [
        "3",
        "0"
      ],
      [
        "b",
        "ro"
      ],
      [
        "or",
        "d"
      ],
      [
        "is",
        "a"
      ],
      [
        "w",
        "r"
      ],
      [
        "s",
        "ent"
      ],
      [
        "s",
        "pe"
      ],
      [
        "b",
        "ad"
      ],
      [
        "gu",
        "ess"
      ],
      [
        "b",
        "ig"
      ],
      [
        "p",
        "a"
      ],
      [
        "S",
        "h"
      ],
      [
        "p",
        "ick"
      ],
      [
        "a",
        "il"
      ],
      [
        "meet",
        "ing"
      ],
      [
        "me",
        "mber"
      ],
      [
        "Ad",
        "am"
      ],
      [
        "p",
        "are"
      ],
      [
        "week",
        "end"
      ],
      [
        "do",
        "ing"
      ],
      [
        "se",
        "lf"
      ],
      [
        "The",
        "re"
      ],
      [
        "lat",
        "er"
      ],
      [
        "C",
        "o"
      ],
      [
        "lo",
        "l"
      ],
      [
        "J",
        "ess"
      ],
      [
        "it",
        "s"
      ],
      [
        "No",
        "t"
      ],
      [
        "l",
        "it"
      ],
      [
        "ind",
        "a"
      ],
      [
        "v",
        "in"
      ],
      [
        "is",
        "e"
      ],
      [
        "j",
        "ob"
      ],
      [
        "S",
        "ar"
      ],
      [
        "ho",
        "pe"
      ],
      [
        "o",
        "ld"
      ],
      [
        "mo",
        "st"
      ],
      [
        "t",
        "ri"
      ],
      [
        "v",
        "ie"
      ],
      [
        "er",
        "ry"
      ],
      [
        "a",
        "ther"
      ],
      [
        "min",
        "ut"
      ],
      [
        "o",
        "se"
      ],
      [
        "y",
        "l"
      ],
      [
        "Ge",
        "or"
      ],
      [
        "H",
        "ave"
      ],
      [
        "Sar",
        "ah"
      ],
      [
        "v",
        "a"
      ],
      [
        "S",
        "e"
      ],
      [
        "d",
        "i"
      ],
      [
        "u",
        "ally"
      ],
      [
        "Dan",
        "ie"
      ],
      [
        "ar",
        "k"
      ],
      [
        "p",
        "ic"
      ],
      [
        "od",
        "y"
      ],
      [
        "do",
        "wn"
      ],
      [
        "e",
        "ar"
      ],
      [
        "k",
        "es"
      ],
      [
        "J",
        "ames"
      ],
      [
        "Wh",
        "y"
      ],
      [
        "Go",
        "od"
      ],
      [
        "Fr",
        "ank"
      ],
      [
        "ple",
        "ase"
      ],
      [
        "Jo",
        "sh"
      ],
      [
        "re",
        "nt"
      ],
      [
        "be",
        "st"
      ],
      [
        "le",
        "s"
      ],
      [
        "pl",
        "an"
      ],
      [
        "mon",
        "th"
      ],
      [
        "D",
        "av"
      ],
      [
        "N",
        "e"
      ],
      [
        "And",
        "re"
      ],
      [
        "ne",
        "ver"
      ],
      [
        "ad",
        "e"
      ],
      [
        "V",
        "ic"
      ],
      [
        "tw",
        "o"
      ],
      [
        "a",
        "ge"
      ],
      [
        "J",
        "ake"
      ],
      [
        "com",
        "p"
      ],
      [
        "th",
        "ough"
      ],
      [
        "and",
        "a"
      ],
      [
        "Mat",
        "t"
      ],
      [
        "c",
        "are"
      ],
      [
        "f",
        "t"
      ],
      [
        "q",
        "ue"
      ],
      [
        "g",
        "on"
      ],
      [
        "Em",
        "ma"
      ],
      [
        "O",
        "K"
      ],
      [
        "se",
        "en"
      ],
      [
        "sc",
        "ho"
      ],
      [
        "to",
        "ld"
      ],
      [
        "co",
        "ol"
      ],
      [
        "re",
        "member"
      ],
      [
        "a",
        "w"
      ],
      [
        "s",
        "ed"
      ],
      [
        "G",
        "reg"
      ],
      [
        "A",
        "m"
      ],
      [
        "de",
        "c"
      ],
      [
        "Dav",
        "id"
      ],
      [
        "I",
        "n"
      ],
      [
        "c",
        "ho"
      ],
      [
        "m",
        "ight"
      ],
      [
        "k",
        "id"
      ],
      [
        "Chris",
        "t"
      ],
      [
        "p",
        "r"
      ],
      [
        "scho",
        "ol"
      ],
      [
        "gon",
        "na"
      ],
      [
        "M",
        "aybe"
      ],
      [
        "i",
        "am"
      ],
      [
        "cl",
        "ass"
      ],
      [
        "K",
        "im"
      ],
      [
        "p",
        "s"
      ],
      [
        "c",
        "a"
      ],
      [
        "M",
        "el"
      ],
      [
        "happ",
        "y"
      ],
      [
        "every",
        "thing"
      ],
      [
        "k",
        "ing"
      ],
      [
        "id",
        "ay"
      ],
      [
        "m",
        "s"
      ],
      [
        "Th",
        "ank"
      ],
      [
        "look",
        "ing"
      ],
      [
        "A",
        "r"
      ],
      [
        "d",
        "in"
      ],
      [
        "s",
        "how"
      ],
      [
        "in",
        "v"
      ],
      [
        "ro",
        "om"
      ],
      [
        "jo",
        "in"
      ],
      [
        "wh",
        "ich"
      ],
      [
        "sa",
        "me"
      ],
      [
        "vis",
        "it"
      ],
      [
        "w",
        "ent"
      ],
      [
        "at",
        "ur"
      ],
      [
        "t",
        "s"
      ],
      [
        "g",
        "l"
      ],
      [
        "d",
        "if"
      ],
      [
        "file_",
        "gif"
      ],
      [
        ":",
        "-"
      ],
      [
        "ge",
        "ther"
      ],
      [
        "an",
        "g"
      ],
      [
        "b",
        "ir"
      ],
      [
        "D",
        "id"
      ],
      [
        "d",
        "u"
      ],
      [
        "ha",
        "el"
      ],
      [
        "ster",
        "day"
      ],
      [
        "m",
        "ind"
      ],
      [
        "he",
        "y"
      ],
      [
        "H",
        "arry"
      ],
      [
        "to",
        "gether"
      ],
      [
        "G",
        "r"
      ],
      [
        "lit",
        "tle"
      ],
      [
        "d",
        "y"
      ],
      [
        "Jo",
        "e"
      ],
      [
        "sa",
        "id"
      ],
      [
        "bab",
        "ly"
      ],
      [
        "minut",
        "es"
      ],
      [
        "B",
        "ar"
      ],
      [
        "Mon",
        "ica"
      ],
      [
        "H",
        "el"
      ],
      [
        "ou",
        "se"
      ],
      [
        "e",
        "ver"
      ],
      [
        "j",
        "e"
      ],
      [
        "Danie",
        "l"
      ],
      [
        "s",
        "ha"
      ],
      [
        "S",
        "us"
      ],
      [
        "Geor",
        "ge"
      ],
      [
        "T",
        "r"
      ],
      [
        "te",
        "rest"
      ],
      [
        "z",
        "a"
      ],
      [
        "Lau",
        "ra"
      ],
      [
        "c",
        "lo"
      ],
      [
        "fe",
        "ct"
      ],
      [
        "mor",
        "ning"
      ],
      [
        "file_",
        "other"
      ],
      [
        "Al",
        "ice"
      ],
      [
        "2",
        "0"
      ],
      [
        "And",
        "y"
      ],
      [
        "are",
        "n"
      ],
      [
        "J",
        "ac"
      ],
      [
        "u",
        "se"
      ],
      [
        "fe",
        "w"
      ],
      [
        "N",
        "ick"
      ],
      [
        "An",
        "y"
      ],
      [
        "H",
        "o"
      ],
      [
        "ar",
        "ri"
      ],
      [
        "Em",
        "ily"
      ],
      [
        "Mar",
        "tha"
      ],
      [
        "f",
        "ree"
      ],
      [
        "I",
        "f"
      ],
      [
        "Car",
        "ol"
      ],
      [
        "Ma",
        "x"
      ],
      [
        "e",
        "at"
      ],
      [
        "thing",
        "s"
      ],
      [
        "Jen",
        "ny"
      ],
      [
        "x",
        "x"
      ],
      [
        "L",
        "inda"
      ],
      [
        "ye",
        "sterday"
      ],
      [
        "op",
        "h"
      ],
      [
        "p",
        "ort"
      ],
      [
        "in",
        "terest"
      ],
      [
        "u",
        "ff"
      ],
      [
        "th",
        "y"
      ],
      [
        "st",
        "and"
      ],
      [
        "cou",
        "nt"
      ],
      [
        "need",
        "s"
      ],
      [
        "m",
        "oney"
      ],
      [
        "Fr",
        "iday"
      ],
      [
        "a",
        "ir"
      ],
      [
        "a",
        "z"
      ],
      [
        "su",
        "pp"
      ],
      [
        "get",
        "ting"
      ],
      [
        "want",
        "ed"
      ],
      [
        "F",
        "red"
      ],
      [
        "et",
        "s"
      ],
      [
        "bir",
        "th"
      ],
      [
        "und",
        "er"
      ],
      [
        "S",
        "oph"
      ],
      [
        "..",
        ".."
      ],
      [
        "dr",
        "ink"
      ],
      [
        "H",
        "en"
      ],
      [
        "on",
        "y"
      ],
      [
        "t",
        "ur"
      ],
      [
        "i",
        "ld"
      ],
      [
        "ri",
        "an"
      ],
      [
        "M",
        "y"
      ],
      [
        "b",
        "l"
      ],
      [
        "m",
        "at"
      ],
      [
        "m",
        "any"
      ],
      [
        "ke",
        "ep"
      ],
      [
        "t",
        "en"
      ],
      [
        "atur",
        "day"
      ],
      [
        "le",
        "ft"
      ],
      [
        "Lu",
        "cy"
      ],
      [
        "wait",
        "ing"
      ],
      [
        "i",
        "re"
      ],
      [
        "me",
        "d"
      ],
      [
        "?",
        "!"
      ],
      [
        "a",
        "p"
      ],
      [
        "B",
        "ob"
      ],
      [
        "M",
        "o"
      ],
      [
        "think",
        "ing"
      ],
      [
        "ll",
        "o"
      ],
      [
        "b",
        "or"
      ],
      [
        "f",
        "ul"
      ],
      [
        "t",
        "ty"
      ],
      [
        "S",
        "ee"
      ],
      [
        "he",
        "ard"
      ],
      [
        "d",
        "one"
      ],
      [
        "M",
        "ia"
      ],
      [
        "d",
        "ress"
      ],
      [
        "le",
        "ss"
      ],
      [
        "work",
        "ing"
      ],
      [
        "Ju",
        "lia"
      ],
      [
        "an",
        "ce"
      ],
      [
        "su",
        "r"
      ],
      [
        "L",
        "isa"
      ],
      [
        "f",
        "r"
      ],
      [
        "N",
        "at"
      ],
      [
        "me",
        "n"
      ],
      [
        "s",
        "it"
      ],
      [
        "Mar",
        "ia"
      ],
      [
        "din",
        "ner"
      ],
      [
        "h",
        "ouse"
      ],
      [
        "birth",
        "day"
      ],
      [
        "M",
        "ay"
      ],
      [
        "w",
        "ard"
      ],
      [
        "c",
        "as"
      ],
      [
        "c",
        "at"
      ],
      [
        "in",
        "ter"
      ],
      [
        "act",
        "ually"
      ],
      [
        "st",
        "uff"
      ],
      [
        "qu",
        "ite"
      ],
      [
        "Je",
        "ff"
      ],
      [
        "happen",
        "ed"
      ],
      [
        "Mic",
        "hael"
      ],
      [
        "Hel",
        "en"
      ],
      [
        "Lu",
        "ke"
      ],
      [
        "le",
        "ave"
      ],
      [
        "Oli",
        "via"
      ],
      [
        "p",
        "ay"
      ],
      [
        "g",
        "g"
      ],
      [
        "t",
        "in"
      ],
      [
        "B",
        "ill"
      ],
      [
        "act",
        "ly"
      ],
      [
        "sa",
        "w"
      ],
      [
        "s",
        "ounds"
      ],
      [
        "t",
        "ick"
      ],
      [
        "s",
        "ide"
      ],
      [
        "Wh",
        "en"
      ],
      [
        "d",
        "ri"
      ],
      [
        "ha",
        "ven"
      ],
      [
        "he",
        "ar"
      ],
      [
        "pro",
        "bably"
      ],
      [
        "n",
        "es"
      ],
      [
        "el",
        "se"
      ],
      [
        "z",
        "y"
      ],
      [
        "an",
        "cy"
      ],
      [
        "c",
        "le"
      ],
      [
        "ex",
        "p"
      ],
      [
        "l",
        "ine"
      ],
      [
        "no",
        "thing"
      ],
      [
        "st",
        "ud"
      ],
      [
        "le",
        "ep"
      ],
      [
        "S",
        "and"
      ],
      [
        "or",
        "a"
      ],
      [
        "S",
        "aturday"
      ],
      [
        "li",
        "ght"
      ],
      [
        "friend",
        "s"
      ],
      [
        "W",
        "here"
      ],
      [
        "L",
        "et"
      ],
      [
        "Ste",
        "ve"
      ],
      [
        "g",
        "er"
      ],
      [
        "Hen",
        "ry"
      ],
      [
        "Ke",
        "lly"
      ],
      [
        "Jac",
        "ob"
      ],
      [
        "b",
        "ody"
      ],
      [
        "D",
        "ian"
      ],
      [
        "E",
        "ll"
      ],
      [
        "c",
        "ent"
      ],
      [
        "i",
        "er"
      ],
      [
        "ph",
        "one"
      ],
      [
        "be",
        "lie"
      ],
      [
        "f",
        "ound"
      ],
      [
        "ac",
        "y"
      ],
      [
        "ve",
        "d"
      ],
      [
        "b",
        "re"
      ],
      [
        "c",
        "us"
      ],
      [
        "f",
        "am"
      ],
      [
        "C",
        "l"
      ],
      [
        "fo",
        "od"
      ],
      [
        "A",
        "g"
      ],
      [
        "en",
        "s"
      ],
      [
        "ann",
        "ah"
      ],
      [
        "que",
        "st"
      ],
      [
        "mis",
        "s"
      ],
      [
        "st",
        "e"
      ],
      [
        "Sus",
        "an"
      ],
      [
        "f",
        "uck"
      ],
      [
        "i",
        "p"
      ],
      [
        "bus",
        "y"
      ],
      [
        "Rob",
        "ert"
      ],
      [
        "R",
        "ac"
      ],
      [
        "S",
        "ue"
      ],
      [
        "n",
        "ie"
      ],
      [
        "m",
        "ay"
      ],
      [
        "ri",
        "a"
      ],
      [
        "R",
        "u"
      ],
      [
        "Andre",
        "w"
      ],
      [
        "ha",
        "ving"
      ],
      [
        "k",
        "ind"
      ],
      [
        "y",
        "a"
      ],
      [
        "off",
        "ice"
      ],
      [
        "un",
        "ch"
      ],
      [
        "A",
        "my"
      ],
      [
        "wor",
        "ry"
      ],
      [
        "Christ",
        "mas"
      ],
      [
        ":",
        "/"
      ],
      [
        "pre",
        "tty"
      ],
      [
        "d",
        "ing"
      ],
      [
        "some",
        "one"
      ],
      [
        "pare",
        "nt"
      ],
      [
        "s",
        "m"
      ],
      [
        "r",
        "ick"
      ],
      [
        "in",
        "to"
      ],
      [
        "su",
        "ch"
      ],
      [
        "even",
        "ing"
      ],
      [
        "haha",
        "ha"
      ],
      [
        "H",
        "annah"
      ],
      [
        "i",
        "th"
      ],
      [
        "um",
        "ber"
      ],
      [
        "belie",
        "ve"
      ],
      [
        "C",
        "la"
      ],
      [
        "th",
        "ank"
      ],
      [
        "K",
        "aren"
      ],
      [
        "L",
        "O"
      ],
      [
        "for",
        "got"
      ],
      [
        "li",
        "ve"
      ],
      [
        "m",
        "ade"
      ],
      [
        "v",
        "ide"
      ],
      [
        "in",
        "ce"
      ],
      [
        "an",
        "c"
      ],
      [
        "An",
        "g"
      ],
      [
        "time",
        "s"
      ],
      [
        "w",
        "anna"
      ],
      [
        "parent",
        "s"
      ],
      [
        "P",
        "o"
      ],
      [
        "an",
        "other"
      ],
      [
        "look",
        "s"
      ],
      [
        "E",
        "ve"
      ],
      [
        "b",
        "ought"
      ],
      [
        "1",
        "5"
      ],
      [
        "se",
        "t"
      ],
      [
        "l",
        "ist"
      ],
      [
        "a",
        "a"
      ],
      [
        "st",
        "r"
      ],
      [
        "T",
        "ina"
      ],
      [
        "a",
        "way"
      ],
      [
        "ig",
        "n"
      ],
      [
        "ok",
        "ay"
      ],
      [
        "dif",
        "fe"
      ],
      [
        "year",
        "s"
      ],
      [
        "f",
        "i"
      ],
      [
        "0",
        "0"
      ],
      [
        "G",
        "reat"
      ],
      [
        "R",
        "on"
      ],
      [
        "li",
        "fe"
      ],
      [
        "E",
        "l"
      ],
      [
        "p",
        "ut"
      ],
      [
        "pp",
        "ing"
      ],
      [
        "S",
        "im"
      ],
      [
        "s",
        "we"
      ],
      [
        "i",
        "ble"
      ],
      [
        "t",
        "ure"
      ],
      [
        "E",
        "d"
      ],
      [
        "N",
        "a"
      ],
      [
        "a",
        "go"
      ],
      [
        "h",
        "ard"
      ],
      [
        "of",
        "fe"
      ],
      [
        "don",
        "t"
      ],
      [
        "je",
        "ct"
      ],
      [
        "Rac",
        "hel"
      ],
      [
        "Bar",
        "b"
      ],
      [
        "Mar",
        "tin"
      ],
      [
        "Ke",
        "vin"
      ],
      [
        "B",
        "et"
      ],
      [
        "l",
        "or"
      ],
      [
        "me",
        "nd"
      ],
      [
        "!!",
        "!!"
      ],
      [
        "Jess",
        "ica"
      ],
      [
        "I",
        "sa"
      ],
      [
        "J",
        "ason"
      ],
      [
        "ut",
        "e"
      ],
      [
        "jo",
        "y"
      ],
      [
        "re",
        "com"
      ],
      [
        "S",
        "ara"
      ],
      [
        "us",
        "ed"
      ],
      [
        "l",
        "uck"
      ],
      [
        "recom",
        "mend"
      ],
      [
        "tur",
        "n"
      ],
      [
        "s",
        "is"
      ],
      [
        "s",
        "leep"
      ],
      [
        "T",
        "his"
      ],
      [
        "Am",
        "anda"
      ],
      [
        "f",
        "u"
      ],
      [
        "M",
        "om"
      ],
      [
        "co",
        "ok"
      ],
      [
        "A",
        "sh"
      ],
      [
        "An",
        "ne"
      ],
      [
        "gu",
        "y"
      ],
      [
        "Jo",
        "se"
      ],
      [
        "g",
        "ame"
      ],
      [
        "n",
        "umber"
      ],
      [
        "ge",
        "st"
      ],
      [
        "A",
        "ll"
      ],
      [
        "D",
        "ave"
      ],
      [
        "bo",
        "th"
      ],
      [
        "te",
        "xt"
      ],
      [
        "T",
        "ho"
      ],
      [
        "sh",
        "it"
      ],
      [
        "na",
        "me"
      ],
      [
        "vide",
        "o"
      ],
      [
        "d",
        "er"
      ],
      [
        "ation",
        "s"
      ],
      [
        "ri",
        "e"
      ],
      [
        "wh",
        "ile"
      ],
      [
        "ren",
        "ce"
      ],
      [
        "p",
        "t"
      ],
      [
        "he",
        "ad"
      ],
      [
        "chan",
        "ge"
      ],
      [
        "B",
        "re"
      ],
      [
        "at",
        "ed"
      ],
      [
        "ver",
        "s"
      ],
      [
        "per",
        "fect"
      ],
      [
        "s",
        "k"
      ],
      [
        "it",
        "ed"
      ],
      [
        "i",
        "k"
      ],
      [
        "d",
        "ate"
      ],
      [
        "I",
        "an"
      ],
      [
        "e",
        "as"
      ],
      [
        "th",
        "ose"
      ],
      [
        "t",
        "t"
      ],
      [
        "en",
        "ough"
      ],
      [
        "He",
        "llo"
      ],
      [
        "tra",
        "in"
      ],
      [
        "hour",
        "s"
      ],
      [
        "LO",
        "L"
      ],
      [
        "p",
        "ass"
      ],
      [
        "ne",
        "y"
      ],
      [
        "S",
        "orry"
      ],
      [
        "at",
        "ing"
      ],
      [
        "le",
        "ast"
      ],
      [
        "ser",
        "ious"
      ],
      [
        "Soph",
        "ie"
      ],
      [
        "G",
        "ab"
      ],
      [
        "J",
        "ay"
      ],
      [
        "P",
        "h"
      ],
      [
        "en",
        "ce"
      ],
      [
        "po",
        "st"
      ],
      [
        "m",
        "ust"
      ],
      [
        "wor",
        "ri"
      ],
      [
        "kid",
        "s"
      ],
      [
        "N",
        "ancy"
      ],
      [
        "R",
        "ick"
      ],
      [
        "fam",
        "ily"
      ],
      [
        "i",
        "ther"
      ],
      [
        ":",
        "*"
      ],
      [
        "X",
        "D"
      ],
      [
        "re",
        "y"
      ],
      [
        "Ro",
        "se"
      ],
      [
        "bre",
        "ak"
      ],
      [
        "o",
        "t"
      ],
      [
        "su",
        "g"
      ],
      [
        "mo",
        "vie"
      ],
      [
        "ma",
        "il"
      ],
      [
        "Ok",
        "ay"
      ],
      [
        "tri",
        "p"
      ],
      [
        "E",
        "li"
      ],
      [
        "the",
        "se"
      ],
      [
        "ill",
        "y"
      ],
      [
        "sc",
        "ar"
      ],
      [
        "d",
        "es"
      ],
      [
        "d",
        "ie"
      ],
      [
        "V",
        "er"
      ],
      [
        "e",
        "ach"
      ],
      [
        "f",
        "er"
      ],
      [
        "pre",
        "sent"
      ],
      [
        "ke",
        "y"
      ],
      [
        "K",
        "at"
      ],
      [
        "pic",
        "ture"
      ],
      [
        "Pat",
        "rick"
      ],
      [
        "L",
        "iz"
      ],
      [
        "en",
        "a"
      ],
      [
        "ex",
        "am"
      ],
      [
        "E",
        "va"
      ],
      [
        "under",
        "stand"
      ],
      [
        "tick",
        "ets"
      ],
      [
        "T",
        "ony"
      ],
      [
        "x",
        "D"
      ],
      [
        "mu",
        "m"
      ],
      [
        "f",
        "ar"
      ],
      [
        "i",
        "la"
      ],
      [
        "c",
        "tion"
      ],
      [
        "or",
        "gan"
      ],
      [
        "D",
        "a"
      ],
      [
        "ion",
        "s"
      ],
      [
        "M",
        "r"
      ],
      [
        "d",
        "ad"
      ],
      [
        "M",
        "ag"
      ],
      [
        "o",
        "me"
      ],
      [
        "s",
        "ick"
      ],
      [
        "ord",
        "er"
      ],
      [
        "diffe",
        "rent"
      ],
      [
        "C",
        "on"
      ],
      [
        "g",
        "y"
      ],
      [
        "ar",
        "on"
      ],
      [
        "lo",
        "w"
      ],
      [
        "every",
        "one"
      ],
      [
        "L",
        "ou"
      ],
      [
        "do",
        "c"
      ],
      [
        "am",
        "az"
      ],
      [
        "M",
        "ad"
      ],
      [
        "K",
        "a"
      ],
      [
        "c",
        "offe"
      ],
      [
        "to",
        "ria"
      ],
      [
        "he",
        "d"
      ],
      [
        "Pau",
        "la"
      ],
      [
        "G",
        "ina"
      ],
      [
        "c",
        "ra"
      ],
      [
        "l",
        "and"
      ],
      [
        "tr",
        "ue"
      ],
      [
        "s",
        "ing"
      ],
      [
        "b",
        "a"
      ],
      [
        "ric",
        "ia"
      ],
      [
        "ex",
        "actly"
      ],
      [
        "Tho",
        "mas"
      ],
      [
        "any",
        "way"
      ],
      [
        "in",
        "s"
      ],
      [
        "to",
        "p"
      ],
      [
        "watch",
        "ing"
      ],
      [
        "Char",
        "lie"
      ],
      [
        "l",
        "unch"
      ],
      [
        "ou",
        "p"
      ],
      [
        "con",
        "t"
      ],
      [
        "Z",
        "o"
      ],
      [
        "ti",
        "l"
      ],
      [
        "or",
        "y"
      ],
      [
        "S",
        "ally"
      ],
      [
        "me",
        "t"
      ],
      [
        "per",
        "son"
      ],
      [
        "c",
        "re"
      ],
      [
        "on",
        "es"
      ],
      [
        "ti",
        "ll"
      ],
      [
        "week",
        "s"
      ],
      [
        "B",
        "rian"
      ],
      [
        "C",
        "am"
      ],
      [
        "T",
        "e"
      ],
      [
        "re",
        "s"
      ],
      [
        "on",
        "a"
      ],
      [
        "be",
        "ing"
      ],
      [
        "Nat",
        "a"
      ],
      [
        "Sand",
        "ra"
      ],
      [
        "m",
        "ine"
      ],
      [
        "S",
        "u"
      ],
      [
        "sto",
        "p"
      ],
      [
        "Dian",
        "a"
      ],
      [
        "E",
        "ric"
      ],
      [
        "Ha",
        "ha"
      ],
      [
        "Jo",
        "an"
      ],
      [
        "H",
        "ar"
      ],
      [
        "mo",
        "m"
      ],
      [
        "c",
        "er"
      ],
      [
        "coffe",
        "e"
      ],
      [
        "ion",
        "a"
      ],
      [
        "Vic",
        "toria"
      ],
      [
        "be",
        "d"
      ],
      [
        "Zo",
        "e"
      ],
      [
        "u",
        "g"
      ],
      [
        "p",
        "ris"
      ],
      [
        "Bet",
        "ty"
      ],
      [
        "po",
        "ss"
      ],
      [
        "who",
        "le"
      ],
      [
        "al",
        "d"
      ],
      [
        "Lu",
        "cas"
      ],
      [
        "amaz",
        "ing"
      ],
      [
        "talk",
        "ing"
      ],
      [
        ":-",
        ")"
      ],
      [
        "sug",
        "gest"
      ],
      [
        "D",
        "ar"
      ],
      [
        "R",
        "ich"
      ],
      [
        "en",
        "joy"
      ],
      [
        "te",
        "st"
      ],
      [
        "Pat",
        "ricia"
      ],
      [
        "D",
        "or"
      ],
      [
        "pl",
        "ans"
      ],
      [
        "ci",
        "al"
      ],
      [
        "r",
        "un"
      ],
      [
        "r",
        "ough"
      ],
      [
        "n",
        "or"
      ],
      [
        "me",
        "s"
      ],
      [
        "A",
        "b"
      ],
      [
        "K",
        "y"
      ],
      [
        "ha",
        "ir"
      ],
      [
        "No",
        "ah"
      ],
      [
        "Le",
        "o"
      ],
      [
        "F",
        "iona"
      ],
      [
        "sho",
        "pping"
      ],
      [
        "C",
        "a"
      ],
      [
        "h",
        "and"
      ],
      [
        "O",
        "scar"
      ],
      [
        "u",
        "su"
      ],
      [
        "on",
        "ce"
      ],
      [
        "K",
        "en"
      ],
      [
        "for",
        "m"
      ],
      [
        "ag",
        "ree"
      ],
      [
        "call",
        "ed"
      ],
      [
        "w",
        "alk"
      ],
      [
        "es",
        "ome"
      ],
      [
        "lo",
        "e"
      ],
      [
        "a",
        "ut"
      ],
      [
        "w",
        "ed"
      ],
      [
        "is",
        "n"
      ],
      [
        "el",
        "a"
      ],
      [
        "to",
        "wn"
      ],
      [
        "it",
        "ch"
      ],
      [
        "see",
        "ms"
      ],
      [
        "ow",
        "n"
      ],
      [
        "v",
        "ent"
      ],
      [
        "to",
        "ok"
      ],
      [
        "s",
        "ince"
      ],
      [
        "we",
        "ar"
      ],
      [
        "E",
        "n"
      ],
      [
        "T",
        "erry"
      ],
      [
        "iz",
        "za"
      ],
      [
        "E",
        "r"
      ],
      [
        "L",
        "iam"
      ],
      [
        "s",
        "th"
      ],
      [
        "it",
        "a"
      ],
      [
        "an",
        "a"
      ],
      [
        "B",
        "o"
      ],
      [
        "en",
        "e"
      ],
      [
        "is",
        "on"
      ],
      [
        "pro",
        "ject"
      ],
      [
        "ic",
        "ul"
      ],
      [
        "Ch",
        "loe"
      ],
      [
        "op",
        "en"
      ],
      [
        "sp",
        "end"
      ],
      [
        "N",
        "ic"
      ],
      [
        "and",
        "y"
      ],
      [
        "ask",
        "ed"
      ],
      [
        "p",
        "ain"
      ],
      [
        "con",
        "d"
      ],
      [
        "Sim",
        "on"
      ],
      [
        "Isa",
        "be"
      ],
      [
        "ac",
        "c"
      ],
      [
        "L",
        "y"
      ],
      [
        "p",
        "ar"
      ],
      [
        "m",
        "p"
      ],
      [
        "av",
        "ing"
      ],
      [
        "ens",
        "ive"
      ],
      [
        "E",
        "than"
      ],
      [
        "sur",
        "pris"
      ],
      [
        "po",
        "int"
      ],
      [
        "Will",
        "iam"
      ],
      [
        "cou",
        "ple"
      ],
      [
        "it",
        "ing"
      ],
      [
        "et",
        "te"
      ],
      [
        "do",
        "g"
      ],
      [
        "li",
        "kes"
      ],
      [
        "pe",
        "ct"
      ],
      [
        "bo",
        "y"
      ],
      [
        "won",
        "der"
      ],
      [
        "th",
        "rough"
      ],
      [
        "un",
        "til"
      ],
      [
        "Br",
        "ad"
      ],
      [
        "re",
        "al"
      ],
      [
        "??",
        "?"
      ],
      [
        "O",
        "f"
      ],
      [
        "h",
        "h"
      ],
      [
        "pre",
        "pare"
      ],
      [
        "al",
        "most"
      ],
      [
        "with",
        "out"
      ],
      [
        "month",
        "s"
      ],
      [
        "o",
        "thy"
      ],
      [
        "at",
        "t"
      ],
      [
        "Gr",
        "ace"
      ],
      [
        "w",
        "ish"
      ],
      [
        "Ash",
        "ley"
      ],
      [
        "hat",
        "e"
      ],
      [
        "ta",
        "king"
      ],
      [
        "try",
        "ing"
      ],
      [
        "ho",
        "li"
      ],
      [
        "Pet",
        "e"
      ],
      [
        "feel",
        "ing"
      ],
      [
        "fin",
        "ite"
      ],
      [
        "L",
        "ily"
      ],
      [
        "f",
        "light"
      ],
      [
        "f",
        "av"
      ],
      [
        "au",
        "r"
      ],
      [
        "new",
        "s"
      ],
      [
        "O",
        "n"
      ],
      [
        "s",
        "y"
      ],
      [
        "Be",
        "th"
      ],
      [
        "Cla",
        "ire"
      ],
      [
        "o",
        "sed"
      ],
      [
        "was",
        "n"
      ],
      [
        "finite",
        "ly"
      ],
      [
        "1",
        "2"
      ],
      [
        "b",
        "ar"
      ],
      [
        "d",
        "en"
      ],
      [
        "Jose",
        "ph"
      ],
      [
        "ex",
        "c"
      ],
      [
        "Char",
        "les"
      ],
      [
        "girl",
        "s"
      ],
      [
        "K",
        "ar"
      ],
      [
        "p",
        "ri"
      ],
      [
        "as",
        "h"
      ],
      [
        "for",
        "t"
      ],
      [
        "B",
        "ro"
      ],
      [
        "no",
        "on"
      ],
      [
        "Jen",
        "n"
      ],
      [
        "c",
        "ame"
      ],
      [
        "Me",
        "gan"
      ],
      [
        "u",
        "gh"
      ],
      [
        "he",
        "lle"
      ],
      [
        "p",
        "ol"
      ],
      [
        "S",
        "und"
      ],
      [
        "ly",
        "n"
      ],
      [
        "any",
        "one"
      ],
      [
        "supp",
        "osed"
      ],
      [
        "Ph",
        "il"
      ],
      [
        "wr",
        "ong"
      ],
      [
        "D",
        "am"
      ],
      [
        "D",
        "ad"
      ],
      [
        "W",
        "end"
      ],
      [
        "p",
        "izza"
      ],
      [
        "Se",
        "an"
      ],
      [
        "A",
        "me"
      ],
      [
        "N",
        "ina"
      ],
      [
        "exp",
        "ensive"
      ],
      [
        "sis",
        "ter"
      ],
      [
        "w",
        "in"
      ],
      [
        "So",
        "me"
      ],
      [
        "sho",
        "p"
      ],
      [
        "T",
        "ed"
      ],
      [
        "f",
        "ast"
      ],
      [
        "m",
        "us"
      ],
      [
        "s",
        "id"
      ],
      [
        "w",
        "o"
      ],
      [
        "Sund",
        "ay"
      ],
      [
        "i",
        "v"
      ],
      [
        "be",
        "aut"
      ],
      [
        "ir",
        "d"
      ],
      [
        "Al",
        "an"
      ],
      [
        "H",
        "A"
      ],
      [
        "R",
        "y"
      ],
      [
        "think",
        "s"
      ],
      [
        "Co",
        "ol"
      ],
      [
        "c",
        "ase"
      ],
      [
        "al",
        "s"
      ],
      [
        "gr",
        "oup"
      ],
      [
        "fun",
        "ny"
      ],
      [
        "wr",
        "ite"
      ],
      [
        "Barb",
        "ara"
      ],
      [
        "ile",
        "y"
      ],
      [
        "start",
        "ed"
      ],
      [
        "re",
        "en"
      ],
      [
        "Ju",
        "lie"
      ],
      [
        "fin",
        "ish"
      ],
      [
        "c",
        "r"
      ],
      [
        "l",
        "ing"
      ],
      [
        "m",
        "ate"
      ],
      [
        "m",
        "er"
      ],
      [
        "St",
        "an"
      ],
      [
        "c",
        "ity"
      ],
      [
        "g",
        "a"
      ],
      [
        "Ju",
        "li"
      ],
      [
        "le",
        "aving"
      ],
      [
        "so",
        "l"
      ],
      [
        "Ag",
        "nes"
      ],
      [
        "w",
        "ine"
      ],
      [
        "vie",
        "w"
      ],
      [
        "ha",
        "lf"
      ],
      [
        "ri",
        "ble"
      ],
      [
        "v",
        "an"
      ],
      [
        "ic",
        "al"
      ],
      [
        "Wend",
        "y"
      ],
      [
        "ti",
        "red"
      ],
      [
        "Carol",
        "ine"
      ],
      [
        "interest",
        "ing"
      ],
      [
        "i",
        "gh"
      ],
      [
        "Mic",
        "helle"
      ],
      [
        "chan",
        "g"
      ],
      [
        "u",
        "es"
      ],
      [
        "w",
        "en"
      ],
      [
        "su",
        "per"
      ],
      [
        "say",
        "s"
      ],
      [
        "G",
        "er"
      ],
      [
        "w",
        "ar"
      ],
      [
        "an",
        "tha"
      ],
      [
        "mo",
        "ther"
      ],
      [
        "b",
        "lo"
      ],
      [
        "co",
        "lle"
      ],
      [
        "ind",
        "y"
      ],
      [
        "ch",
        "ild"
      ],
      [
        "ra",
        "id"
      ],
      [
        "ur",
        "ing"
      ],
      [
        "Sam",
        "antha"
      ],
      [
        "A",
        "s"
      ],
      [
        "on",
        "s"
      ],
      [
        "May",
        "a"
      ],
      [
        "k",
        "en"
      ],
      [
        "if",
        "er"
      ],
      [
        "ex",
        "pect"
      ],
      [
        "he",
        "s"
      ],
      [
        "J",
        "ill"
      ],
      [
        "l",
        "in"
      ],
      [
        "J",
        "am"
      ],
      [
        "O",
        "M"
      ],
      [
        "is",
        "y"
      ],
      [
        "my",
        "self"
      ],
      [
        "Ry",
        "an"
      ],
      [
        "ur",
        "s"
      ],
      [
        "E",
        "x"
      ],
      [
        "an",
        "ie"
      ],
      [
        "lo",
        "st"
      ],
      [
        "Vic",
        "tor"
      ],
      [
        "J",
        "erry"
      ],
      [
        "comp",
        "any"
      ],
      [
        "poss",
        "ible"
      ],
      [
        "be",
        "er"
      ],
      [
        "ch",
        "ar"
      ],
      [
        "Ne",
        "w"
      ],
      [
        "an",
        "ge"
      ],
      [
        "re",
        "ci"
      ],
      [
        "part",
        "ment"
      ],
      [
        "plan",
        "ning"
      ],
      [
        "Oli",
        "ver"
      ],
      [
        "an",
        "e"
      ],
      [
        "mo",
        "ve"
      ],
      [
        "would",
        "n"
      ],
      [
        "Mon",
        "day"
      ],
      [
        "W",
        "ho"
      ],
      [
        "g",
        "ie"
      ],
      [
        "p",
        "ack"
      ],
      [
        "T",
        "o"
      ],
      [
        "k",
        "ed"
      ],
      [
        "Nata",
        "lie"
      ],
      [
        "F",
        "or"
      ],
      [
        "Fr",
        "anc"
      ],
      [
        "stud",
        "y"
      ],
      [
        "h",
        "or"
      ],
      [
        "Don",
        "na"
      ],
      [
        "any",
        "more"
      ],
      [
        "Mo",
        "lly"
      ],
      [
        "wed",
        "ding"
      ],
      [
        "Jenn",
        "ifer"
      ],
      [
        "L",
        "ike"
      ],
      [
        "af",
        "raid"
      ],
      [
        "ear",
        "ly"
      ],
      [
        "co",
        "st"
      ],
      [
        "can",
        "not"
      ],
      [
        "play",
        "ing"
      ],
      [
        "Na",
        "than"
      ],
      [
        "ve",
        "l"
      ],
      [
        "v",
        "ice"
      ],
      [
        "d",
        "uring"
      ],
      [
        "S",
        "ounds"
      ],
      [
        "le",
        "ase"
      ],
      [
        "li",
        "x"
      ],
      [
        "co",
        "ld"
      ],
      [
        "A",
        "va"
      ],
      [
        "in",
        "n"
      ],
      [
        "L",
        "illy"
      ],
      [
        "n",
        "et"
      ],
      [
        "che",
        "d"
      ],
      [
        "hi",
        "gh"
      ],
      [
        "Ame",
        "lia"
      ],
      [
        "be",
        "th"
      ],
      [
        "la",
        "in"
      ],
      [
        "bab",
        "y"
      ],
      [
        "interest",
        "ed"
      ],
      [
        "dri",
        "ve"
      ],
      [
        "E",
        "lla"
      ],
      [
        "G",
        "u"
      ],
      [
        "is",
        "sa"
      ],
      [
        "cle",
        "an"
      ],
      [
        "Rich",
        "ard"
      ],
      [
        "O",
        "r"
      ],
      [
        "on",
        "line"
      ],
      [
        "dec",
        "id"
      ],
      [
        "Ru",
        "th"
      ],
      [
        "doc",
        "tor"
      ],
      [
        "b",
        "s"
      ],
      [
        "g",
        "en"
      ],
      [
        "if",
        "ul"
      ],
      [
        "work",
        "s"
      ],
      [
        "Tr",
        "acy"
      ],
      [
        "c",
        "al"
      ],
      [
        "u",
        "el"
      ],
      [
        "aw",
        "esome"
      ],
      [
        "V",
        "ick"
      ],
      [
        "ne",
        "ar"
      ],
      [
        "te",
        "l"
      ],
      [
        "could",
        "n"
      ],
      [
        "aur",
        "ant"
      ],
      [
        "K",
        "ris"
      ],
      [
        "A",
        "big"
      ],
      [
        "the",
        "w"
      ],
      [
        "tri",
        "ed"
      ],
      [
        "eas",
        "y"
      ],
      [
        "Da",
        "isy"
      ],
      [
        "i",
        "b"
      ],
      [
        "are",
        "t"
      ],
      [
        "es",
        "e"
      ],
      [
        "li",
        "p"
      ],
      [
        "ask",
        "ing"
      ],
      [
        "Mag",
        "gie"
      ],
      [
        "p",
        "ub"
      ],
      [
        "to",
        "t"
      ],
      [
        "Mar",
        "g"
      ],
      [
        "Abig",
        "ail"
      ],
      [
        "b",
        "all"
      ],
      [
        "ck",
        "y"
      ],
      [
        "after",
        "noon"
      ],
      [
        "P",
        "e"
      ],
      [
        "c",
        "ha"
      ],
      [
        "c",
        "ert"
      ],
      [
        "d",
        "et"
      ],
      [
        "e",
        "mail"
      ],
      [
        "swe",
        "et"
      ],
      [
        "M",
        "um"
      ],
      [
        "ic",
        "s"
      ],
      [
        "v",
        "o"
      ],
      [
        "ra",
        "in"
      ],
      [
        "ck",
        "s"
      ],
      [
        "pre",
        "ss"
      ],
      [
        "en",
        "ny"
      ],
      [
        "rest",
        "aurant"
      ],
      [
        "app",
        "o"
      ],
      [
        "Ky",
        "le"
      ],
      [
        "de",
        "al"
      ],
      [
        "bro",
        "ke"
      ],
      [
        "Ho",
        "pe"
      ],
      [
        "sm",
        "all"
      ],
      [
        "1",
        "1"
      ],
      [
        "l",
        "ad"
      ],
      [
        "le",
        "ar"
      ],
      [
        "de",
        "finitely"
      ],
      [
        "oo",
        "oo"
      ],
      [
        "Lo",
        "ok"
      ],
      [
        "Re",
        "ally"
      ],
      [
        "d",
        "a"
      ],
      [
        "w",
        "ow"
      ],
      [
        "it",
        "al"
      ],
      [
        "su",
        "b"
      ],
      [
        "Mar",
        "ie"
      ],
      [
        "u",
        "ro"
      ],
      [
        "li",
        "ked"
      ],
      [
        "con",
        "cert"
      ],
      [
        "list",
        "en"
      ],
      [
        "mes",
        "sa"
      ],
      [
        "c",
        "ard"
      ],
      [
        "ve",
        "s"
      ],
      [
        "ma",
        "king"
      ],
      [
        "your",
        "self"
      ],
      [
        "g",
        "i"
      ],
      [
        "se",
        "cond"
      ],
      [
        "s",
        "ong"
      ],
      [
        "ment",
        "s"
      ],
      [
        "bro",
        "ther"
      ],
      [
        "beaut",
        "iful"
      ],
      [
        "c",
        "or"
      ],
      [
        "l",
        "u"
      ],
      [
        "cont",
        "act"
      ],
      [
        "P",
        "lease"
      ],
      [
        "W",
        "ow"
      ],
      [
        "u",
        "ri"
      ],
      [
        "v",
        "or"
      ],
      [
        "Lo",
        "gan"
      ],
      [
        "is",
        "hed"
      ],
      [
        "Marg",
        "aret"
      ],
      [
        "id",
        "ent"
      ],
      [
        "im",
        "port"
      ],
      [
        "Jack",
        "ie"
      ],
      [
        "OM",
        "G"
      ],
      [
        "A",
        "t"
      ],
      [
        "d",
        "ro"
      ],
      [
        "-",
        ")"
      ],
      [
        "um",
        "p"
      ],
      [
        "Me",
        "g"
      ],
      [
        "B",
        "er"
      ],
      [
        "m",
        "ar"
      ],
      [
        "on",
        "t"
      ],
      [
        "class",
        "es"
      ],
      [
        "Dor",
        "othy"
      ],
      [
        "Ell",
        "ie"
      ],
      [
        "cra",
        "zy"
      ],
      [
        "urs",
        "day"
      ],
      [
        "U",
        "n"
      ],
      [
        "No",
        "w"
      ],
      [
        "bo",
        "ss"
      ],
      [
        "av",
        "ail"
      ],
      [
        "C",
        "ould"
      ],
      [
        "D",
        "en"
      ],
      [
        "for",
        "get"
      ],
      [
        "pro",
        "mis"
      ],
      [
        "ag",
        "es"
      ],
      [
        "M",
        "ir"
      ],
      [
        "o",
        "le"
      ],
      [
        "te",
        "am"
      ],
      [
        "spe",
        "ak"
      ],
      [
        "quest",
        "ion"
      ],
      [
        "S",
        "ha"
      ],
      [
        "Ste",
        "ph"
      ],
      [
        "import",
        "ant"
      ],
      [
        "s",
        "en"
      ],
      [
        "we",
        "l"
      ],
      [
        "al",
        "one"
      ],
      [
        "un",
        "i"
      ],
      [
        "iz",
        "e"
      ],
      [
        "s",
        "al"
      ],
      [
        "ste",
        "ad"
      ],
      [
        "appo",
        "int"
      ],
      [
        "L",
        "arry"
      ],
      [
        "ll",
        "ing"
      ],
      [
        "T",
        "ob"
      ],
      [
        "W",
        "ed"
      ],
      [
        "F",
        "e"
      ],
      [
        "ing",
        "s"
      ],
      [
        "we",
        "en"
      ],
      [
        "Ye",
        "p"
      ],
      [
        "lot",
        "te"
      ],
      [
        "out",
        "side"
      ],
      [
        "Char",
        "lotte"
      ],
      [
        "ad",
        "d"
      ],
      [
        "Ang",
        "ela"
      ],
      [
        "f",
        "lat"
      ],
      [
        "it",
        "ion"
      ],
      [
        "are",
        "d"
      ],
      [
        "up",
        "id"
      ],
      [
        "ine",
        "ma"
      ],
      [
        "e",
        "ither"
      ],
      [
        "in",
        "ess"
      ],
      [
        "re",
        "ce"
      ],
      [
        "le",
        "ct"
      ],
      [
        "we",
        "ather"
      ],
      [
        "spe",
        "cial"
      ],
      [
        "Su",
        "z"
      ],
      [
        "b",
        "ur"
      ],
      [
        "j",
        "am"
      ],
      [
        "fin",
        "ally"
      ],
      [
        "Jam",
        "ie"
      ],
      [
        "Ju",
        "ne"
      ],
      [
        "Ann",
        "ie"
      ],
      [
        "Jim",
        "my"
      ],
      [
        "er",
        "ing"
      ],
      [
        "some",
        "where"
      ],
      [
        "has",
        "n"
      ],
      [
        "dis",
        "cus"
      ],
      [
        "D",
        "om"
      ],
      [
        "ate",
        "ly"
      ],
      [
        "p",
        "ark"
      ],
      [
        "s",
        "im"
      ],
      [
        "re",
        "cent"
      ],
      [
        "st",
        "y"
      ],
      [
        "Jo",
        "anna"
      ],
      [
        "Car",
        "on"
      ],
      [
        "gl",
        "ad"
      ],
      [
        "m",
        "ark"
      ],
      [
        "pp",
        "ed"
      ],
      [
        "Je",
        "re"
      ],
      [
        "worri",
        "es"
      ],
      [
        "avail",
        "able"
      ],
      [
        "G",
        "ary"
      ],
      [
        "de",
        "ar"
      ],
      [
        "c",
        "el"
      ],
      [
        "l",
        "ic"
      ],
      [
        "A",
        "aron"
      ],
      [
        "P",
        "er"
      ],
      [
        "bor",
        "row"
      ],
      [
        "decid",
        "ed"
      ],
      [
        "c",
        "ute"
      ],
      [
        "z",
        "e"
      ],
      [
        "se",
        "ason"
      ],
      [
        "that",
        "s"
      ],
      [
        "one",
        "st"
      ],
      [
        "per",
        "i"
      ],
      [
        "Bre",
        "nd"
      ],
      [
        "clo",
        "se"
      ],
      [
        "J",
        "on"
      ],
      [
        "problem",
        "s"
      ],
      [
        "nes",
        "day"
      ],
      [
        "mus",
        "ic"
      ],
      [
        "l",
        "ink"
      ],
      [
        "st",
        "upid"
      ],
      [
        "su",
        "mm"
      ],
      [
        "mo",
        "ment"
      ],
      [
        "wor",
        "ld"
      ],
      [
        "talk",
        "ed"
      ],
      [
        "h",
        "ur"
      ],
      [
        "at",
        "es"
      ],
      [
        "un",
        "k"
      ],
      [
        "c",
        "inema"
      ],
      [
        "g",
        "ave"
      ],
      [
        "h",
        "u"
      ],
      [
        "lo",
        "g"
      ],
      [
        "get",
        "s"
      ],
      [
        "V",
        "al"
      ],
      [
        "b",
        "ast"
      ],
      [
        "c",
        "ed"
      ],
      [
        "s",
        "po"
      ],
      [
        "w",
        "is"
      ],
      [
        "fr",
        "ont"
      ],
      [
        "B",
        "la"
      ],
      [
        "I",
        "m"
      ],
      [
        "ou",
        "ch"
      ],
      [
        "ti",
        "e"
      ],
      [
        "wor",
        "d"
      ],
      [
        "b",
        "and"
      ],
      [
        "A",
        "na"
      ],
      [
        "c",
        "ur"
      ],
      [
        "m",
        "id"
      ],
      [
        "as",
        "ha"
      ],
      [
        "ho",
        "tel"
      ],
      [
        "love",
        "ly"
      ],
      [
        "B",
        "ye"
      ],
      [
        "st",
        "ation"
      ],
      [
        "ac",
        "her"
      ],
      [
        "end",
        "s"
      ],
      [
        "M",
        "or"
      ],
      [
        "d",
        "am"
      ],
      [
        "re",
        "et"
      ],
      [
        "v",
        "ious"
      ],
      [
        "ac",
        "count"
      ],
      [
        "s",
        "ie"
      ],
      [
        "at",
        "s"
      ],
      [
        "ar",
        "s"
      ],
      [
        "know",
        "s"
      ],
      [
        "book",
        "s"
      ],
      [
        "L",
        "ee"
      ],
      [
        "e",
        "vent"
      ],
      [
        "in",
        "stead"
      ],
      [
        "Th",
        "ursday"
      ],
      [
        "tr",
        "ans"
      ],
      [
        "ather",
        "ine"
      ],
      [
        "Mel",
        "issa"
      ],
      [
        "H",
        "mm"
      ],
      [
        "N",
        "or"
      ],
      [
        "ma",
        "kes"
      ],
      [
        "Tom",
        "my"
      ],
      [
        "gr",
        "and"
      ],
      [
        "ans",
        "w"
      ],
      [
        "cho",
        "ose"
      ],
      [
        "C",
        "indy"
      ],
      [
        "f",
        "re"
      ],
      [
        "con",
        "sid"
      ],
      [
        "pre",
        "fer"
      ],
      [
        "Pat",
        "ty"
      ],
      [
        "E",
        "very"
      ],
      [
        "P",
        "ro"
      ],
      [
        "k",
        "ill"
      ],
      [
        "r",
        "id"
      ],
      [
        "re",
        "ason"
      ],
      [
        "ay",
        "la"
      ],
      [
        "Th",
        "en"
      ],
      [
        "du",
        "de"
      ],
      [
        "Wed",
        "nesday"
      ],
      [
        "T",
        "ues"
      ],
      [
        "m",
        "it"
      ],
      [
        "Je",
        "an"
      ],
      [
        "J",
        "as"
      ],
      [
        "S",
        "p"
      ],
      [
        "re",
        "k"
      ],
      [
        "ce",
        "pt"
      ],
      [
        "Br",
        "u"
      ],
      [
        "En",
        "gl"
      ],
      [
        "W",
        "ould"
      ],
      [
        "w",
        "w"
      ],
      [
        "Wh",
        "ich"
      ],
      [
        "5",
        "0"
      ],
      [
        "li",
        "er"
      ],
      [
        "ber",
        "t"
      ],
      [
        "Vick",
        "y"
      ],
      [
        "P",
        "ol"
      ],
      [
        "do",
        "or"
      ],
      [
        "photo",
        "s"
      ],
      [
        "buy",
        "ing"
      ],
      [
        "gif",
        "t"
      ],
      [
        "Sh",
        "ould"
      ],
      [
        "L",
        "on"
      ],
      [
        "g",
        "ames"
      ],
      [
        "ta",
        "in"
      ],
      [
        "sto",
        "re"
      ],
      [
        "recent",
        "ly"
      ],
      [
        "T",
        "re"
      ],
      [
        "a",
        "partment"
      ],
      [
        "d",
        "el"
      ],
      [
        "ro",
        "ss"
      ],
      [
        "lo",
        "ad"
      ],
      [
        "ra",
        "ther"
      ],
      [
        "Mat",
        "thew"
      ],
      [
        "bl",
        "ack"
      ],
      [
        "Ru",
        "by"
      ],
      [
        "p",
        "op"
      ],
      [
        "see",
        "ing"
      ],
      [
        "Car",
        "l"
      ],
      [
        "det",
        "ail"
      ],
      [
        "A",
        "ud"
      ],
      [
        "f",
        "an"
      ],
      [
        "k",
        "a"
      ],
      [
        "he",
        "ll"
      ],
      [
        "Nic",
        "ole"
      ],
      [
        "r",
        "u"
      ],
      [
        "Eli",
        "za"
      ],
      [
        "P",
        "M"
      ],
      [
        "f",
        "icul"
      ],
      [
        "come",
        "s"
      ],
      [
        "worri",
        "ed"
      ],
      [
        "usu",
        "al"
      ],
      [
        "tot",
        "ally"
      ],
      [
        "Jere",
        "my"
      ],
      [
        "T",
        "ay"
      ],
      [
        "ma",
        "in"
      ],
      [
        "off",
        "er"
      ],
      [
        "fin",
        "ished"
      ],
      [
        "summ",
        "er"
      ],
      [
        "t",
        "able"
      ],
      [
        "de",
        "ad"
      ],
      [
        "Be",
        "cky"
      ],
      [
        "cl",
        "ub"
      ],
      [
        "A",
        "mber"
      ],
      [
        "b",
        "as"
      ],
      [
        "ic",
        "ally"
      ],
      [
        "wat",
        "er"
      ],
      [
        "f",
        "il"
      ],
      [
        "ask",
        "s"
      ],
      [
        "pa",
        "per"
      ],
      [
        "H",
        "er"
      ],
      [
        "p",
        "ast"
      ],
      [
        "ly",
        "ing"
      ],
      [
        "im",
        "ag"
      ],
      [
        "om",
        "an"
      ],
      [
        "ex",
        "t"
      ],
      [
        "Be",
        "lla"
      ],
      [
        "x",
        "d"
      ],
      [
        "ll",
        "ow"
      ],
      [
        "be",
        "c"
      ],
      [
        "te",
        "acher"
      ],
      [
        "yl",
        "an"
      ],
      [
        "yl",
        "er"
      ],
      [
        "Tay",
        "lor"
      ],
      [
        "O",
        "wen"
      ],
      [
        "S",
        "co"
      ],
      [
        "c",
        "am"
      ],
      [
        "s",
        "ort"
      ],
      [
        "al",
        "right"
      ],
      [
        "Ho",
        "lly"
      ],
      [
        "Brend",
        "a"
      ],
      [
        "S",
        "yl"
      ],
      [
        "W",
        "ar"
      ],
      [
        "l",
        "t"
      ],
      [
        "we",
        "ird"
      ],
      [
        "got",
        "ta"
      ],
      [
        "ear",
        "lier"
      ],
      [
        "dif",
        "ficul"
      ],
      [
        "sh",
        "ort"
      ],
      [
        "sa",
        "fe"
      ],
      [
        "say",
        "ing"
      ],
      [
        "C",
        "e"
      ],
      [
        "D",
        "D"
      ],
      [
        "h",
        "un"
      ],
      [
        "m",
        "od"
      ],
      [
        "v",
        "i"
      ],
      [
        "ll",
        "ie"
      ],
      [
        "ho",
        "sp"
      ],
      [
        "bo",
        "ard"
      ],
      [
        "De",
        "rek"
      ],
      [
        "inv",
        "ited"
      ],
      [
        "cat",
        "ch"
      ],
      [
        "fi",
        "x"
      ],
      [
        "detail",
        "s"
      ],
      [
        "le",
        "g"
      ],
      [
        "com",
        "ple"
      ],
      [
        "long",
        "er"
      ],
      [
        "Ver",
        "on"
      ],
      [
        "L",
        "ind"
      ],
      [
        "M",
        "an"
      ],
      [
        "c",
        "es"
      ],
      [
        "re",
        "am"
      ],
      [
        "gy",
        "m"
      ],
      [
        "ide",
        "as"
      ],
      [
        "R",
        "ay"
      ],
      [
        "R",
        "ight"
      ],
      [
        "h",
        "onest"
      ],
      [
        "bo",
        "t"
      ],
      [
        "picture",
        "s"
      ],
      [
        "Tues",
        "day"
      ],
      [
        "b",
        "ye"
      ],
      [
        "g",
        "n"
      ],
      [
        "u",
        "u"
      ],
      [
        "ent",
        "s"
      ],
      [
        "op",
        "tion"
      ],
      [
        "bus",
        "iness"
      ],
      [
        "ang",
        "ry"
      ],
      [
        "A",
        "f"
      ],
      [
        "m",
        "arri"
      ],
      [
        "ne",
        "igh"
      ],
      [
        "wat",
        "ched"
      ],
      [
        "Tre",
        "vor"
      ],
      [
        "c",
        "ut"
      ],
      [
        "ag",
        "re"
      ],
      [
        "fav",
        "our"
      ],
      [
        ";",
        "-)"
      ],
      [
        "D",
        "ylan"
      ],
      [
        "c",
        "li"
      ],
      [
        "le",
        "d"
      ],
      [
        "man",
        "ag"
      ],
      [
        "c",
        "ess"
      ],
      [
        "Dan",
        "ny"
      ],
      [
        "Br",
        "it"
      ],
      [
        "r",
        "ad"
      ],
      [
        "st",
        "ress"
      ],
      [
        "che",
        "ap"
      ],
      [
        "ple",
        "as"
      ],
      [
        "ci",
        "ally"
      ],
      [
        "suggest",
        "s"
      ],
      [
        "bo",
        "x"
      ],
      [
        "G",
        "od"
      ],
      [
        "W",
        "al"
      ],
      [
        "the",
        "s"
      ],
      [
        "ar",
        "ch"
      ],
      [
        "Ha",
        "haha"
      ],
      [
        "Ex",
        "actly"
      ],
      [
        "1",
        "9"
      ],
      [
        "ha",
        "m"
      ],
      [
        "Ro",
        "ss"
      ],
      [
        "Kat",
        "ie"
      ],
      [
        "boy",
        "friend"
      ],
      [
        "Engl",
        "ish"
      ],
      [
        "difficul",
        "t"
      ],
      [
        "S",
        "er"
      ],
      [
        "c",
        "ake"
      ],
      [
        "Alex",
        "and"
      ],
      [
        "dr",
        "unk"
      ],
      [
        "Cl",
        "ara"
      ],
      [
        "lear",
        "n"
      ],
      [
        "Lon",
        "don"
      ],
      [
        "Veron",
        "ica"
      ],
      [
        "R",
        "al"
      ],
      [
        "Ste",
        "ven"
      ],
      [
        "Soph",
        "ia"
      ],
      [
        "ik",
        "a"
      ],
      [
        "N",
        "ice"
      ],
      [
        "s",
        "ad"
      ],
      [
        "go",
        "es"
      ],
      [
        "exc",
        "ited"
      ],
      [
        "li",
        "an"
      ],
      [
        "co",
        "l"
      ],
      [
        "che",
        "du"
      ],
      [
        "discus",
        "s"
      ],
      [
        "I",
        "re"
      ],
      [
        "h",
        "oney"
      ],
      [
        "i",
        "en"
      ],
      [
        "sh",
        "ip"
      ],
      [
        "ce",
        "le"
      ],
      [
        "holi",
        "day"
      ],
      [
        "P",
        "am"
      ],
      [
        "k",
        "new"
      ],
      [
        "re",
        "mind"
      ],
      [
        "ll",
        "ed"
      ],
      [
        "es",
        "sa"
      ],
      [
        "Le",
        "ah"
      ],
      [
        "C",
        "he"
      ],
      [
        "L",
        "ena"
      ],
      [
        "f",
        "it"
      ],
      [
        "h",
        "mm"
      ],
      [
        "th",
        "ree"
      ],
      [
        "can",
        "t"
      ],
      [
        "some",
        "times"
      ],
      [
        "bet",
        "ween"
      ],
      [
        "mat",
        "ter"
      ],
      [
        "fu",
        "lly"
      ],
      [
        "child",
        "ren"
      ],
      [
        "wel",
        "come"
      ],
      [
        "M",
        "andy"
      ],
      [
        "g",
        "in"
      ],
      [
        "et",
        "c"
      ],
      [
        "su",
        "n"
      ],
      [
        "Fr",
        "an"
      ],
      [
        "dec",
        "ide"
      ],
      [
        "inv",
        "it"
      ],
      [
        "Aud",
        "rey"
      ],
      [
        "Ral",
        "ph"
      ],
      [
        "B",
        "art"
      ],
      [
        "e",
        "st"
      ],
      [
        "f",
        "ace"
      ],
      [
        "mis",
        "sed"
      ],
      [
        "Lo",
        "ve"
      ],
      [
        "pa",
        "id"
      ],
      [
        "pr",
        "ice"
      ],
      [
        "O",
        "la"
      ],
      [
        "s",
        "ign"
      ],
      [
        "or",
        "i"
      ],
      [
        "for",
        "ward"
      ],
      [
        "man",
        "age"
      ],
      [
        "ser",
        "ies"
      ],
      [
        "comple",
        "te"
      ],
      [
        "he",
        "al"
      ],
      [
        "Andre",
        "a"
      ],
      [
        "sol",
        "ute"
      ],
      [
        "Tob",
        "y"
      ],
      [
        "hosp",
        "ital"
      ],
      [
        "A",
        "ust"
      ],
      [
        "W",
        "anna"
      ],
      [
        "r",
        "ing"
      ],
      [
        "th",
        "x"
      ],
      [
        "on",
        "ia"
      ],
      [
        "ro",
        "y"
      ],
      [
        "Go",
        "t"
      ],
      [
        "cele",
        "br"
      ],
      [
        "ri",
        "el"
      ],
      [
        "us",
        "h"
      ],
      [
        "feel",
        "s"
      ],
      [
        "stay",
        "ing"
      ],
      [
        "Any",
        "way"
      ],
      [
        "y",
        "o"
      ],
      [
        "Co",
        "me"
      ],
      [
        "ti",
        "ve"
      ],
      [
        "la",
        "p"
      ],
      [
        "No",
        "pe"
      ],
      [
        "file_",
        "video"
      ],
      [
        "chan",
        "ce"
      ],
      [
        "girl",
        "friend"
      ],
      [
        "sha",
        "re"
      ],
      [
        "clo",
        "thes"
      ],
      [
        "acc",
        "ident"
      ],
      [
        "H",
        "ugh"
      ],
      [
        "b",
        "ag"
      ],
      [
        "ac",
        "es"
      ],
      [
        "read",
        "ing"
      ],
      [
        "love",
        "s"
      ],
      [
        "qu",
        "ick"
      ],
      [
        "bor",
        "ing"
      ],
      [
        "serious",
        "ly"
      ],
      [
        "e",
        "ed"
      ],
      [
        "s",
        "ound"
      ],
      [
        "ou",
        "d"
      ],
      [
        "Ad",
        "rian"
      ],
      [
        "arri",
        "ve"
      ],
      [
        "Lou",
        "ise"
      ],
      [
        "imag",
        "ine"
      ],
      [
        "P",
        "a"
      ],
      [
        "Y",
        "our"
      ],
      [
        "f",
        "ess"
      ],
      [
        "f",
        "ather"
      ],
      [
        "y",
        "y"
      ],
      [
        "ou",
        "nt"
      ],
      [
        "ff",
        "ic"
      ],
      [
        "d",
        "ia"
      ],
      [
        "t",
        "ed"
      ],
      [
        "y",
        "n"
      ],
      [
        "ar",
        "is"
      ],
      [
        "ro",
        "ad"
      ],
      [
        "what",
        "ever"
      ],
      [
        "drink",
        "s"
      ],
      [
        "messa",
        "ge"
      ],
      [
        "Mir",
        "anda"
      ],
      [
        "m",
        "ad"
      ],
      [
        "u",
        "ation"
      ],
      [
        "A",
        "li"
      ],
      [
        "R",
        "ory"
      ],
      [
        "i",
        "i"
      ],
      [
        "i",
        "x"
      ],
      [
        "Se",
        "bast"
      ],
      [
        "d",
        "ou"
      ],
      [
        "t",
        "ouch"
      ],
      [
        "u",
        "al"
      ],
      [
        "co",
        "p"
      ],
      [
        "ex",
        "peri"
      ],
      [
        "Just",
        "in"
      ],
      [
        "inv",
        "ite"
      ],
      [
        "Bob",
        "by"
      ],
      [
        "ba",
        "be"
      ],
      [
        "run",
        "ning"
      ],
      [
        "Bla",
        "ke"
      ],
      [
        "f",
        "act"
      ],
      [
        "in",
        "form"
      ],
      [
        "ch",
        "ick"
      ],
      [
        "haha",
        "h"
      ],
      [
        "Kim",
        "ber"
      ],
      [
        "fu",
        "ll"
      ],
      [
        "L",
        "ol"
      ],
      [
        "l",
        "en"
      ],
      [
        "😂",
        "😂"
      ],
      [
        "ho",
        "t"
      ],
      [
        "wor",
        "se"
      ],
      [
        "ris",
        "t"
      ],
      [
        "Sam",
        "uel"
      ],
      [
        "Stan",
        "ley"
      ],
      [
        "A",
        "h"
      ],
      [
        "in",
        "st"
      ],
      [
        "l",
        "an"
      ],
      [
        "to",
        "ry"
      ],
      [
        "me",
        "ss"
      ],
      [
        "is",
        "su"
      ],
      [
        "wi",
        "fe"
      ],
      [
        "ho",
        "p"
      ],
      [
        "ad",
        "vice"
      ],
      [
        "wor",
        "th"
      ],
      [
        "No",
        "thing"
      ],
      [
        "bl",
        "ue"
      ],
      [
        "men",
        "tion"
      ],
      [
        "S",
        "m"
      ],
      [
        "e",
        "m"
      ],
      [
        "f",
        "lix"
      ],
      [
        "ill",
        "a"
      ],
      [
        "pp",
        "y"
      ],
      [
        "Jan",
        "et"
      ],
      [
        "Lou",
        "is"
      ],
      [
        "Dom",
        "in"
      ],
      [
        "G",
        "lor"
      ],
      [
        "or",
        "k"
      ],
      [
        "for",
        "d"
      ],
      [
        "not",
        "es"
      ],
      [
        "Sh",
        "aron"
      ],
      [
        "Ell",
        "en"
      ],
      [
        "F",
        "inn"
      ],
      [
        "L",
        "ia"
      ],
      [
        "M",
        "ason"
      ],
      [
        "W",
        "a"
      ],
      [
        "p",
        "ie"
      ],
      [
        "re",
        "w"
      ],
      [
        "fe",
        "rence"
      ],
      [
        "pro",
        "du"
      ],
      [
        "marri",
        "ed"
      ],
      [
        "E",
        "van"
      ],
      [
        "J",
        "ord"
      ],
      [
        "R",
        "ita"
      ],
      [
        "o",
        "s"
      ],
      [
        "w",
        "all"
      ],
      [
        "ir",
        "a"
      ],
      [
        "other",
        "s"
      ],
      [
        "Sco",
        "tt"
      ],
      [
        "Sebast",
        "ian"
      ],
      [
        "4",
        "0"
      ],
      [
        "S",
        "k"
      ],
      [
        "T",
        "V"
      ],
      [
        "f",
        "ish"
      ],
      [
        "kid",
        "ding"
      ],
      [
        "Tr",
        "ue"
      ],
      [
        "dri",
        "ving"
      ],
      [
        "fuck",
        "ing"
      ],
      [
        "chang",
        "ed"
      ],
      [
        "Syl",
        "via"
      ],
      [
        "B",
        "ry"
      ],
      [
        "U",
        "S"
      ],
      [
        "ar",
        "r"
      ],
      [
        "are",
        "nt"
      ],
      [
        "ta",
        "kes"
      ],
      [
        "bo",
        "red"
      ],
      [
        "Glor",
        "ia"
      ],
      [
        "g",
        "ra"
      ],
      [
        "i",
        "et"
      ],
      [
        "n",
        "ess"
      ],
      [
        "you",
        "n"
      ],
      [
        "la",
        "w"
      ],
      [
        "ill",
        "e"
      ],
      [
        "Jo",
        "y"
      ],
      [
        "Lo",
        "la"
      ],
      [
        "Re",
        "bec"
      ],
      [
        "ward",
        "s"
      ],
      [
        "appoint",
        "ment"
      ],
      [
        "Rebec",
        "ca"
      ],
      [
        "R",
        "a"
      ],
      [
        "j",
        "a"
      ],
      [
        "v",
        "ies"
      ],
      [
        "The",
        "o"
      ],
      [
        "wr",
        "iting"
      ],
      [
        "surpris",
        "e"
      ],
      [
        "solute",
        "ly"
      ],
      [
        "b",
        "ie"
      ],
      [
        "m",
        "ing"
      ],
      [
        "it",
        "ies"
      ],
      [
        "con",
        "fir"
      ],
      [
        "po",
        "sit"
      ],
      [
        "gr",
        "ab"
      ],
      [
        "count",
        "ry"
      ],
      [
        "Fred",
        "die"
      ],
      [
        "b",
        "our"
      ],
      [
        "i",
        "al"
      ],
      [
        "se",
        "x"
      ],
      [
        "10",
        "0"
      ],
      [
        "usu",
        "ally"
      ],
      [
        "S",
        "id"
      ],
      [
        "d",
        "ue"
      ],
      [
        "m",
        "al"
      ],
      [
        "w",
        "ise"
      ],
      [
        "re",
        "su"
      ],
      [
        "st",
        "air"
      ],
      [
        "po",
        "or"
      ],
      [
        "De",
        "an"
      ],
      [
        "C",
        "or"
      ],
      [
        "F",
        "lo"
      ],
      [
        "d",
        "ra"
      ],
      [
        "id",
        "ge"
      ],
      [
        "mo",
        "ved"
      ],
      [
        "ile",
        "s"
      ],
      [
        "book",
        "ed"
      ],
      [
        "E",
        "S"
      ],
      [
        "Q",
        "u"
      ],
      [
        "row",
        "n"
      ],
      [
        "lot",
        "s"
      ],
      [
        "air",
        "port"
      ],
      [
        "recommend",
        "s"
      ],
      [
        "Er",
        "in"
      ],
      [
        "g",
        "one"
      ],
      [
        "re",
        "ct"
      ],
      [
        "ye",
        "p"
      ],
      [
        "ta",
        "ken"
      ],
      [
        "op",
        "er"
      ],
      [
        "El",
        "isa"
      ],
      [
        "P",
        "hi"
      ],
      [
        "V",
        "io"
      ],
      [
        "l",
        "er"
      ],
      [
        "o",
        "ke"
      ],
      [
        "wh",
        "ite"
      ],
      [
        "look",
        "ed"
      ],
      [
        "Lau",
        "ren"
      ],
      [
        "Jess",
        "ie"
      ],
      [
        "cho",
        "ice"
      ],
      [
        "xx",
        "x"
      ],
      [
        "Sand",
        "y"
      ],
      [
        "Te",
        "ll"
      ],
      [
        "Isabe",
        "lla"
      ],
      [
        "dro",
        "p"
      ],
      [
        "Per",
        "fect"
      ],
      [
        "A",
        "ct"
      ],
      [
        "f",
        "lo"
      ],
      [
        "th",
        "ony"
      ],
[...]
